node {
  name: "global_step/Initializer/zeros"
  op: "Const"
  attr {
    key: "_class"
    value {
      list {
        s: "loc:@global_step"
      }
    }
  }
  attr {
    key: "_output_shapes"
    value {
      list {
        shape {
        }
      }
    }
  }
  attr {
    key: "dtype"
    value {
      type: DT_INT64
    }
  }
  attr {
    key: "value"
    value {
      tensor {
        dtype: DT_INT64
        tensor_shape {
        }
        int64_val: 0
      }
    }
  }
}
node {
  name: "global_step"
  op: "VarHandleOp"
  attr {
    key: "_class"
    value {
      list {
        s: "loc:@global_step"
      }
    }
  }
  attr {
    key: "_output_shapes"
    value {
      list {
        shape {
        }
      }
    }
  }
  attr {
    key: "allowed_devices"
    value {
      list {
      }
    }
  }
  attr {
    key: "container"
    value {
      s: ""
    }
  }
  attr {
    key: "dtype"
    value {
      type: DT_INT64
    }
  }
  attr {
    key: "shape"
    value {
      shape {
      }
    }
  }
  attr {
    key: "shared_name"
    value {
      s: "global_step"
    }
  }
}
node {
  name: "global_step/IsInitialized/VarIsInitializedOp"
  op: "VarIsInitializedOp"
  input: "global_step"
  attr {
    key: "_output_shapes"
    value {
      list {
        shape {
        }
      }
    }
  }
}
node {
  name: "global_step/Assign"
  op: "AssignVariableOp"
  input: "global_step"
  input: "global_step/Initializer/zeros"
  attr {
    key: "_has_manual_control_dependencies"
    value {
      b: true
    }
  }
  attr {
    key: "dtype"
    value {
      type: DT_INT64
    }
  }
  attr {
    key: "validate_shape"
    value {
      b: false
    }
  }
}
node {
  name: "global_step/Read/ReadVariableOp"
  op: "ReadVariableOp"
  input: "global_step"
  attr {
    key: "_output_shapes"
    value {
      list {
        shape {
        }
      }
    }
  }
  attr {
    key: "dtype"
    value {
      type: DT_INT64
    }
  }
}
node {
  name: "global_step/VarIsInitializedOp"
  op: "VarIsInitializedOp"
  input: "global_step"
  attr {
    key: "_output_shapes"
    value {
      list {
        shape {
        }
      }
    }
  }
}
node {
  name: "global_step/cond"
  op: "If"
  input: "global_step/VarIsInitializedOp"
  input: "global_step"
  input: "global_step/Initializer/zeros"
  attr {
    key: "Tcond"
    value {
      type: DT_BOOL
    }
  }
  attr {
    key: "Tin"
    value {
      list {
        type: DT_RESOURCE
        type: DT_INT64
      }
    }
  }
  attr {
    key: "Tout"
    value {
      list {
        type: DT_INT64
      }
    }
  }
  attr {
    key: "_lower_using_switch_merge"
    value {
      b: true
    }
  }
  attr {
    key: "_output_shapes"
    value {
      list {
        shape {
        }
      }
    }
  }
  attr {
    key: "_read_only_resource_inputs"
    value {
      list {
        i: 1
      }
    }
  }
  attr {
    key: "else_branch"
    value {
      func {
        name: "global_step_cond_false_3554"
      }
    }
  }
  attr {
    key: "output_shapes"
    value {
      list {
        shape {
        }
      }
    }
  }
  attr {
    key: "then_branch"
    value {
      func {
        name: "global_step_cond_true_3553"
      }
    }
  }
}
node {
  name: "global_step/cond/Identity"
  op: "Identity"
  input: "global_step/cond"
  attr {
    key: "T"
    value {
      type: DT_INT64
    }
  }
  attr {
    key: "_output_shapes"
    value {
      list {
        shape {
        }
      }
    }
  }
}
node {
  name: "global_step/add/y"
  op: "Const"
  attr {
    key: "_output_shapes"
    value {
      list {
        shape {
        }
      }
    }
  }
  attr {
    key: "dtype"
    value {
      type: DT_INT64
    }
  }
  attr {
    key: "value"
    value {
      tensor {
        dtype: DT_INT64
        tensor_shape {
        }
        int64_val: 0
      }
    }
  }
}
node {
  name: "global_step/add"
  op: "AddV2"
  input: "global_step/cond/Identity"
  input: "global_step/add/y"
  attr {
    key: "T"
    value {
      type: DT_INT64
    }
  }
  attr {
    key: "_output_shapes"
    value {
      list {
        shape {
        }
      }
    }
  }
}
node {
  name: "normalize_element/component_0"
  op: "Const"
  device: "/device:CPU:0"
  attr {
    key: "_output_shapes"
    value {
      list {
        shape {
          dim {
            size: 318
          }
        }
      }
    }
  }
  attr {
    key: "dtype"
    value {
      type: DT_DOUBLE
    }
  }
  attr {
    key: "value"
    value {
      tensor {
        dtype: DT_DOUBLE
        tensor_shape {
          dim {
            size: 318
          }
        }
        tensor_content: "-D\251^\353\367\363?\204\351.\361>\262\355\277RB\037\017\275\326\225\277\353\250\356E\254\336\366?\32019i\233\330\325?`\357\026j\253\033\002@\330E\221\037\tK\371\277\32019i\233\330\325?iry\024.\254\374?\252=G\230/{\304?\252=G\230/{\304?\n]\322\316\277d\266?\265,&2\3400\371?eb\'\203\317\271\340?\032\032\035\013s\223\330\277\216\370\316dS+\361\277\007 \244\"\275\344\347\277\253\257\351=\205\331\350?\007 \244\"\275\344\347\277\252=G\230/{\304?\273e\367\004\013`\353\277\207\022\2562\013\357\323\277\032\032\035\013s\223\330\277\032\032\035\013s\223\330\277RB\037\017\275\326\225\277\032\032\035\013s\223\330\277\031\250ze\0355\344?\363\035\202\361\327<\001@\353\250\356E\254\336\366?\360\203u)\357!\370\277\201\331\334_\340\277\361\277\226q\0054\237\002\352?m\233\350;\3407\252?\252=G\230/{\304?\252=G\230/{\304?\212V\031T;\027\342\277\370i\226[7^\345?\252=G\230/{\304?RB\037\017\275\326\225\277?>\"G\241\246\364\277\212V\031T;\027\342\277\251<\331$a;\n@eb\'\203\317\271\340?\373\255\001}g\206\323?\022\006\305T\005!\365?o\0305JU@\343\277\007 \244\"\275\344\347\277?>\"G\241\246\364\277?\016\017\334\336\360\311\277\n]\322\316\277d\266??\016\017\334\336\360\311\277\032\032\035\013s\223\330\277\212V\031T;\027\342\277)yt\014\007\247\356?\032\032\035\013s\223\330\277\032\032\035\013s\223\330\277i\253J\347X\333\356\277\315\355\315Gk\260\347?H\202\215h\321\316\362?\252=G\230/{\304?\337\356\203\245N\007\270\277\212V\031T;\027\342\277RB\037\017\275\326\225\277\235\350\033r\322 \000\300\343\235T\367\246\345\332\277c\300qr\267\245\361?J\267X\026\355}\355?\032\032\035\013s\223\330\277\032\032\035\013s\223\330\277\376\242g.b\215\367\277-D\251^\353\367\363?\322\025~\264F\225\316\277-D\251^\353\367\363?\254\006\240\003wL\305\277\007 \244\"\275\344\347\277\245\265pU\317*\330?\212V\031T;\027\342\277\373\255\001}g\206\323?\353\250\356E\254\336\366?7\275\337-7\317\334?eb\'\203\317\271\340?\032\262\246@T\356\005\300\373\255\001}g\206\323?RB\037\017\275\326\225\277\275\007\255\025#t\372\277\212V\031T;\027\342\277\204\351.\361>\262\355\277\204\351.\361>\262\355\277\373\255\001}g\206\323?\343\235T\367\246\345\332\277\32019i\233\330\325?\273e\367\004\013`\353\277\216\370\316dS+\361\277RB\037\017\275\326\225\277eb\'\203\317\271\340?n\337cw*\021\361?RB\037\017\275\326\225\277?>\"G\241\246\364\277-D\251^\353\367\363?\255!\214\343\3327\335\277-D\251^\353\367\363?\275\007\255\025#t\372\277\262\216vF\327\234\321\277\343\235T\367\246\345\332\277\207\022\2562\013\357\323\277\'\327\276\373\356\222\377?\201\331\334_\340\277\361\277\254\006\240\003wL\305\277\007 \244\"\275\344\347\277\370i\226[7^\345?RB\037\017\275\326\225\277\252=G\230/{\304?m\233\350;\3407\252?-D\251^\353\367\363?t\277K\351\375|\255\277\354\341\277\030\327\r\351\277\032\032\035\013s\223\330\277#^\210,\243\273\346\277\007 \244\"\275\344\347\277\373\255\001}g\206\323?\032\032\035\013s\223\330\277RB\037\017\275\326\225\277\245\265pU\317*\330?\343\235T\367\246\345\332\277\212V\031T;\027\342\277\341\211\374@9s\367?)yt\014\007\247\356?/l\260\177\217\255\277?c\300qr\267\245\361?\201\245\303\317\016\212\337\277\207\022\2562\013\357\323\277_\365< \323T\354?\'\327\276\373\356\222\377?o\0305JU@\343\277/l\260\177\217\255\277?\201\245\303\317\016\212\337\277?\016\017\334\336\360\311\277\32019i\233\330\325?\320L%I\377\303\315?\32019i\233\330\325?\014\302Y3\325\370\366\277s\221k\031\241\027\374?{l\362\374\343Z\375\277eb\'\203\317\271\340?\204\351.\361>\262\355\277\275\007\255\025#t\372\277?\016\017\334\336\360\311\277\032\3770+\017\250\300\277\343d\203$|\266\370\277\201\331\334_\340\277\361\277\212V\031T;\027\342\277\342+\262QQ\207\346?M4\225\nH\325\375?\341\211\374@9s\367?\342+\262QQ\207\346?RB\037\017\275\326\225\277\342+\262QQ\207\346?\212V\031T;\027\342\277\322\025~\264F\225\316\277\031\250ze\0355\344?eb\'\203\317\271\340?RB\037\017\275\326\225\277\031\250ze\0355\344?\366\307\340J\037J\366?>\234l6\211\222\345\277\007 \244\"\275\344\347\277\376\242g.b\215\367\277b9\250A\003}\332?eb\'\203\317\271\340?_\365< \323T\354??\016\017\334\336\360\311\277\315\355\315Gk\260\347?)yt\014\007\247\356?b\310\032\273\346\236\007@?>\"G\241\246\364\277\022\006\305T\005!\365?iry\024.\254\374?\374\232\276\3452\224\001\300\032\032\035\013s\223\330\277S\241\177mD:\362?\201\331\334_\340\277\361\277_\365< \323T\354?_\365< \323T\354?\32019i\233\330\325?\32019i\233\330\325?\007 \244\"\275\344\347\277\204\351.\361>\262\355\277RB\037\017\275\326\225\277-D\251^\353\367\363??\016\017\334\336\360\311\277\204\351.\361>\262\355\277\212V\031T;\027\342\277t\277K\351\375|\255\277\032\032\035\013s\223\330\277?\016\017\334\336\360\311\277\273e\367\004\013`\353\277.\346^o\003\014\343?\373\255\001}g\206\323?n\337cw*\021\361?\376\242g.b\215\367\277RB\037\017\275\326\225\2777\275\337-7\317\334?\212V\031T;\027\342\277\007 \244\"\275\344\347\277\322\025~\264F\225\316\277>\234l6\211\222\345\277\007 \244\"\275\344\347\277\032\032\035\013s\223\330\277\245\265pU\317*\330?S\332P@oi\344\277\237\356A(\372Y\372?\353\250\356E\254\336\366?\235\350\033r\322 \000\300_\365< \323T\354?\'\327\276\373\356\222\377?\'\327\276\373\356\222\377?\32019i\233\330\325?E\2612`\305D\003@\212V\031T;\027\342\277#^\210,\243\273\346\277\360\203u)\357!\370\277\201\245\303\317\016\212\337\277\245\224\375]!\356\340\277?>\"G\241\246\364\277\007 \244\"\275\344\347\277\366\307\340J\037J\366?\32019i\233\330\325?\320L%I\377\303\315??\016\017\334\336\360\311\277?>\"G\241\246\364\277\373\255\001}g\206\323??\016\017\334\336\360\311\277-D\251^\353\367\363??\016\017\334\336\360\311\277S\332P@oi\344\277\322\025~\264F\225\316\277\032\032\035\013s\223\330\277\376\242g.b\215\367\277\273e\367\004\013`\353\277t\277K\351\375|\255\277)yt\014\007\247\356?)yt\014\007\247\356?\212V\031T;\027\342\277?>\"G\241\246\364\277\275\007\255\025#t\372\277\262\216vF\327\234\321\277RB\037\017\275\326\225\277\322\025~\264F\225\316\277RB\037\017\275\326\225\277\204\351.\361>\262\355\277\32019i\233\330\325?\032\032\035\013s\223\330\277\n]\322\316\277d\266?\032\032\035\013s\223\330\277\345\376\217\354d\321\001@\201\331\334_\340\277\361\277\n]\322\316\277d\266?eb\'\203\317\271\340?-D\251^\353\367\363?\373\255\001}g\206\323?\337\356\203\245N\007\270\277[MaY\223\007\003\300\376\242g.b\215\367\277c\300qr\267\245\361?\322\025~\264F\225\316\277\032\032\035\013s\223\330\277\376\242g.b\215\367\277\237\356A(\372Y\372?\201\331\334_\340\277\361\277\204\351.\361>\262\355\277\330\337\235\347\361e\002@eb\'\203\317\271\340?\315\355\315Gk\260\347?\365@\027\032k!\337?\273\377\003\315\363z\004\300\342+\262QQ\207\346?\337\356\203\245N\007\270\277\255!\214\343\3327\335\277\235\350\033r\322 \000\300eb\'\203\317\271\340?RB\037\017\275\326\225\277\n]\322\316\277d\266?eb\'\203\317\271\340?\343\235T\367\246\345\332\277[|\006Q\207}\363\277\235\350\033r\322 \000\300\354\341\277\030\327\r\351\277\201\331\334_\340\277\361\277?\016\017\334\336\360\311\277\2476\263n9\002\360\277eb\'\203\317\271\340?\275\007\255\025#t\372\277E\2612`\305D\003@\007 \244\"\275\344\347\277\023;\220\002!\320\357?\32019i\233\330\325?\226q\0054\237\002\352?\253\257\351=\205\331\350?u3!*\271+\353?-D\251^\353\367\363?\252=G\230/{\304?RB\037\017\275\326\225\277\262\216vF\327\234\321\277\374\232\276\3452\224\001\300RB\037\017\275\326\225\277\315\300\253\342~\372\002@_\365< \323T\354?\032\032\035\013s\223\330\277c\300qr\267\245\361?\320L%I\377\303\315?\366\307\340J\037J\366?\32019i\233\330\325?\212V\031T;\027\342\277t\277K\351\375|\255\277\022\006\305T\005!\365?\204\351.\361>\262\355\277\373\255\001}g\206\323?\2476\263n9\002\360\277"
      }
    }
  }
}
node {
  name: "normalize_element/component_1"
  op: "Const"
  device: "/device:CPU:0"
  attr {
    key: "_output_shapes"
    value {
      list {
        shape {
          dim {
            size: 318
          }
        }
      }
    }
  }
  attr {
    key: "dtype"
    value {
      type: DT_DOUBLE
    }
  }
  attr {
    key: "value"
    value {
      tensor {
        dtype: DT_DOUBLE
        tensor_shape {
          dim {
            size: 318
          }
        }
        tensor_content: "+1\372\224;\001\323?k\243\324n\032\205\367?k\243\324n\032\205\367?\252\025\257H\371\010\354\277\252\025\257H\371\010\354\277\252\025\257H\371\010\354\277k\243\324n\032\205\367?\252\025\257H\371\010\354\277\252\025\257H\371\010\354\277+1\372\224;\001\323?+1\372\224;\001\323?\252\025\257H\371\010\354\277\025\3751~[\210\322\277\252\025\257H\371\010\354\277k\243\324n\032\205\367?+1\372\224;\001\323?e\226\"i\342f\367\277+1\372\224;\001\323?e\226\"i\342f\367\277+1\372\224;\001\323?k\243\324n\032\205\367?\252\025\257H\371\010\354\277\252\025\257H\371\010\354\277k\243\324n\032\205\367?\252\025\257H\371\010\354\277\252\025\257H\371\010\354\277\252\025\257H\371\010\354\277\252\025\257H\371\010\354\277\252\025\257H\371\010\354\277k\243\324n\032\205\367?e\226\"i\342f\367\277+1\372\224;\001\323?\252\025\257H\371\010\354\277+1\372\224;\001\323?\252\025\257H\371\010\354\277k\243\324n\032\205\367?\252\025\257H\371\010\354\277\252\025\257H\371\010\354\277+1\372\224;\001\323?k\243\324n\032\205\367?\252\025\257H\371\010\354\277\252\025\257H\371\010\354\277+1\372\224;\001\323?\252\025\257H\371\010\354\277\252\025\257H\371\010\354\277k\243\324n\032\205\367?e\226\"i\342f\367\277k\243\324n\032\205\367?k\243\324n\032\205\367?+1\372\224;\001\323?+1\372\224;\001\323?\252\025\257H\371\010\354\277\252\025\257H\371\010\354\277\252\025\257H\371\010\354\277+1\372\224;\001\323?\252\025\257H\371\010\354\277\252\025\257H\371\010\354\277+1\372\224;\001\323?\252\025\257H\371\010\354\277+1\372\224;\001\323?\252\025\257H\371\010\354\277\252\025\257H\371\010\354\277\252\025\257H\371\010\354\277k\243\324n\032\205\367?\252\025\257H\371\010\354\277\252\025\257H\371\010\354\277\252\025\257H\371\010\354\277\252\025\257H\371\010\354\277\252\025\257H\371\010\354\277k\243\324n\032\205\367?\252\025\257H\371\010\354\277\252\025\257H\371\010\354\277\252\025\257H\371\010\354\277+1\372\224;\001\323?k\243\324n\032\205\367?\252\025\257H\371\010\354\277\252\025\257H\371\010\354\277\252\025\257H\371\010\354\277\252\025\257H\371\010\354\277\252\025\257H\371\010\354\277\252\025\257H\371\010\354\277k\243\324n\032\205\367?\252\025\257H\371\010\354\277\252\025\257H\371\010\354\277k\243\324n\032\205\367?k\243\324n\032\205\367?k\243\324n\032\205\367?k\243\324n\032\205\367?\252\025\257H\371\010\354\277\252\025\257H\371\010\354\277+1\372\224;\001\323?k\243\324n\032\205\367?+1\372\224;\001\323?\252\025\257H\371\010\354\277+1\372\224;\001\323?\252\025\257H\371\010\354\277\252\025\257H\371\010\354\277k\243\324n\032\205\367?+1\372\224;\001\323?k\243\324n\032\205\367?\252\025\257H\371\010\354\277k\243\324n\032\205\367?\252\025\257H\371\010\354\277\252\025\257H\371\010\354\277\252\025\257H\371\010\354\277+1\372\224;\001\323?k\243\324n\032\205\367?\252\025\257H\371\010\354\277\252\025\257H\371\010\354\277k\243\324n\032\205\367?+1\372\224;\001\323?k\243\324n\032\205\367?\252\025\257H\371\010\354\277\252\025\257H\371\010\354\277+1\372\224;\001\323?k\243\324n\032\205\367?k\243\324n\032\205\367?\252\025\257H\371\010\354\277+1\372\224;\001\323?\252\025\257H\371\010\354\277\252\025\257H\371\010\354\277\252\025\257H\371\010\354\277+1\372\224;\001\323?\252\025\257H\371\010\354\277\252\025\257H\371\010\354\277\252\025\257H\371\010\354\277+1\372\224;\001\323?\025\3751~[\210\322\277\252\025\257H\371\010\354\277\252\025\257H\371\010\354\277+1\372\224;\001\323?\252\025\257H\371\010\354\277\252\025\257H\371\010\354\277\252\025\257H\371\010\354\277\252\025\257H\371\010\354\277\252\025\257H\371\010\354\277\252\025\257H\371\010\354\277+1\372\224;\001\323?+1\372\224;\001\323?\252\025\257H\371\010\354\277\252\025\257H\371\010\354\277\252\025\257H\371\010\354\277k\243\324n\032\205\367?+1\372\224;\001\323?\252\025\257H\371\010\354\277k\243\324n\032\205\367?+1\372\224;\001\323?k\243\324n\032\205\367?+1\372\224;\001\323?\252\025\257H\371\010\354\277k\243\324n\032\205\367?\252\025\257H\371\010\354\277\252\025\257H\371\010\354\277+1\372\224;\001\323?\252\025\257H\371\010\354\277k\243\324n\032\205\367?\252\025\257H\371\010\354\277\252\025\257H\371\010\354\277\252\025\257H\371\010\354\277\252\025\257H\371\010\354\277\252\025\257H\371\010\354\277+1\372\224;\001\323?\252\025\257H\371\010\354\277\252\025\257H\371\010\354\277k\243\324n\032\205\367?k\243\324n\032\205\367?k\243\324n\032\205\367?+1\372\224;\001\323?\252\025\257H\371\010\354\277+1\372\224;\001\323?\252\025\257H\371\010\354\277\252\025\257H\371\010\354\277\252\025\257H\371\010\354\277\252\025\257H\371\010\354\277k\243\324n\032\205\367?+1\372\224;\001\323?\252\025\257H\371\010\354\277k\243\324n\032\205\367?k\243\324n\032\205\367?+1\372\224;\001\323?k\243\324n\032\205\367?\252\025\257H\371\010\354\277\252\025\257H\371\010\354\277\252\025\257H\371\010\354\277\252\025\257H\371\010\354\277k\243\324n\032\205\367?k\243\324n\032\205\367?\252\025\257H\371\010\354\277k\243\324n\032\205\367?+1\372\224;\001\323?k\243\324n\032\205\367?k\243\324n\032\205\367?k\243\324n\032\205\367?\252\025\257H\371\010\354\277+1\372\224;\001\323?k\243\324n\032\205\367?+1\372\224;\001\323?\252\025\257H\371\010\354\277k\243\324n\032\205\367?k\243\324n\032\205\367?+1\372\224;\001\323?\252\025\257H\371\010\354\277\252\025\257H\371\010\354\277\252\025\257H\371\010\354\277\252\025\257H\371\010\354\277k\243\324n\032\205\367?k\243\324n\032\205\367?+1\372\224;\001\323?+1\372\224;\001\323?+1\372\224;\001\323?\025\3751~[\210\322\277+1\372\224;\001\323?k\243\324n\032\205\367?\252\025\257H\371\010\354\277+1\372\224;\001\323?+1\372\224;\001\323?+1\372\224;\001\323?\252\025\257H\371\010\354\277k\243\324n\032\205\367?+1\372\224;\001\323?+1\372\224;\001\323?\252\025\257H\371\010\354\277\252\025\257H\371\010\354\277k\243\324n\032\205\367?k\243\324n\032\205\367?\252\025\257H\371\010\354\277\252\025\257H\371\010\354\277\252\025\257H\371\010\354\277\252\025\257H\371\010\354\277k\243\324n\032\205\367?+1\372\224;\001\323?k\243\324n\032\205\367?k\243\324n\032\205\367?\252\025\257H\371\010\354\277\252\025\257H\371\010\354\277k\243\324n\032\205\367?\252\025\257H\371\010\354\277k\243\324n\032\205\367?k\243\324n\032\205\367?\252\025\257H\371\010\354\277+1\372\224;\001\323?+1\372\224;\001\323?+1\372\224;\001\323?k\243\324n\032\205\367?k\243\324n\032\205\367?\252\025\257H\371\010\354\277\252\025\257H\371\010\354\277\252\025\257H\371\010\354\277+1\372\224;\001\323?k\243\324n\032\205\367?\252\025\257H\371\010\354\277\252\025\257H\371\010\354\277+1\372\224;\001\323?\252\025\257H\371\010\354\277\252\025\257H\371\010\354\277k\243\324n\032\205\367?+1\372\224;\001\323?+1\372\224;\001\323?\252\025\257H\371\010\354\277+1\372\224;\001\323?\252\025\257H\371\010\354\277k\243\324n\032\205\367?k\243\324n\032\205\367?\252\025\257H\371\010\354\277\252\025\257H\371\010\354\277k\243\324n\032\205\367?k\243\324n\032\205\367?\252\025\257H\371\010\354\277k\243\324n\032\205\367?k\243\324n\032\205\367?\252\025\257H\371\010\354\277\252\025\257H\371\010\354\277\252\025\257H\371\010\354\277\252\025\257H\371\010\354\277k\243\324n\032\205\367?\252\025\257H\371\010\354\277\252\025\257H\371\010\354\277\252\025\257H\371\010\354\277k\243\324n\032\205\367?+1\372\224;\001\323?+1\372\224;\001\323?+1\372\224;\001\323?\252\025\257H\371\010\354\277\252\025\257H\371\010\354\277k\243\324n\032\205\367?k\243\324n\032\205\367?+1\372\224;\001\323?k\243\324n\032\205\367?k\243\324n\032\205\367?k\243\324n\032\205\367?\252\025\257H\371\010\354\277k\243\324n\032\205\367?k\243\324n\032\205\367?k\243\324n\032\205\367?\252\025\257H\371\010\354\277\252\025\257H\371\010\354\277\252\025\257H\371\010\354\277+1\372\224;\001\323?\252\025\257H\371\010\354\277\252\025\257H\371\010\354\277+1\372\224;\001\323?\252\025\257H\371\010\354\277\252\025\257H\371\010\354\277k\243\324n\032\205\367?\252\025\257H\371\010\354\277\252\025\257H\371\010\354\277\252\025\257H\371\010\354\277+1\372\224;\001\323?\252\025\257H\371\010\354\277\252\025\257H\371\010\354\277\252\025\257H\371\010\354\277+1\372\224;\001\323?k\243\324n\032\205\367?+1\372\224;\001\323?\252\025\257H\371\010\354\277+1\372\224;\001\323?\252\025\257H\371\010\354\277\252\025\257H\371\010\354\277"
      }
    }
  }
}
node {
  name: "normalize_element/component_2"
  op: "Const"
  device: "/device:CPU:0"
  attr {
    key: "_output_shapes"
    value {
      list {
        shape {
          dim {
            size: 318
          }
        }
      }
    }
  }
  attr {
    key: "dtype"
    value {
      type: DT_DOUBLE
    }
  }
  attr {
    key: "value"
    value {
      tensor {
        dtype: DT_DOUBLE
        tensor_shape {
          dim {
            size: 318
          }
        }
        tensor_content: " m%!f\231\322?Q\221\252\250\373Y\371?lq\265\333\235\303\360?\014\201\004\260,\347\346\277\235\204|\254\211\312\332\277o\353\212,\253\333\335\277#g\032\202\032u\360?|l\316\374%J\346\277:\253\224\326\r\314\357\277\023\375\237\007\225\344\326?,\017\212\323\211M\240?i\263\347\257\351\304\340\277\304viV\251\230\346\277vt\033\370\220\321\360\277\014\343p\225\254\370\367?\006\'\345\305\027]\320\277*\016\037X\331\225\361\277 m%!f\231\322?\223A&\030j\036\363\277 m%!f\231\322?e\271\362N5\351\362?AcWcv\246\355\277\t\345\262\361\313[\360\277e\271\362N5\351\362?|l\316\374%J\346\277\211m\362\274\371\364\355\277AcWcv\246\355\277\301\332\027\230H\r\360\277\333K\301q\355l\363\277\350]\243\350j\321\367?\223A&\030j\036\363\277\336\t\217\235\241k\343?:\253\224\326\r\314\357\277\235\267\266\320\206\367\340?|l\316\374%J\346\277\365^\307\250>|\377?:\253\224\326\r\314\357\277\211m\362\274\371\364\355\277\235\267\266\320\206\367\340?\350]\243\350j\321\367?\345_\345D\2124\360\277\211m\362\274\371\364\355\277\235\267\266\320\206\367\340?i\263\347\257\351\304\340\277vt\033\370\220\321\360\277lq\265\333\235\303\360?\223A&\030j\036\363\277#g\032\202\032u\360?\330\000\036\342b9\361?\202\350iT\216G\326?\202\350iT\216G\326?\304viV\251\230\346\277-\252p\026:!\350\277:\253\224\326\r\314\357\277o\353\212,\253\333\335\277\301\332\027\230H\r\360\277\322\346\356ozM\342\2772X\353\006\365\035\252?\345_\345D\2124\360\2772X\353\006\365\035\252?hD\206V\354\272\354\277\006\311A#\304\014\351\277\267\006\344<\330\343\352\277\333|wd\255\365\003@AcWcv\246\355\277N\323\334|G[\351\277i\263\347\257\351\304\340\277\014\201\004\260,\347\346\277G\033\032\360\336\200\353\277\006\272\007\236W\367\001@N\223\354\004\033\275\361\277G\033\032\360\336\200\353\277\211m\362\274\371\364\355\277\336\t\217\235\241k\343?e\271\362N5\351\362?AcWcv\246\355\277-\252p\026:!\350\277\235\204|\254\211\312\332\277i\263\347\257\351\304\340\277o\374H\343T\225\352\277\014\201\004\260,\347\346\277\177*\234(\332H\366?R\357MKO\252\360\277\032\361\211\311\375\233\342\277\333|wd\255\365\003@\350]\243\350j\321\367?\350]\243\350j\321\367?Q\221\252\250\373Y\371?:\253\224\326\r\314\357\277\313\035n,h\271\327\277,\017\212\323\211M\240?\220\366\202\210\337\352\360?h\200\255\213\354\227\312\277AcWcv\246\355\277\3772\373\003\257\245\344?AcWcv\246\355\277o\374H\343T\225\352\277lq\265\333\235\303\360?\336\t\217\235\241k\343?\014\343p\225\254\370\367?i\263\347\257\351\304\340\277\006\272\007\236W\367\001@\032\361\211\311\375\233\342\277\267\006\344<\330\343\352\277:\253\224\326\r\314\357\277\235\267\266\320\206\367\340?\350]\243\350j\321\367?|l\316\374%J\346\277\304viV\251\230\346\277\350]\243\350j\321\367?\023\375\237\007\225\344\326?#g\032\202\032u\360?\304viV\251\230\346\277AcWcv\246\355\277\202\350iT\216G\326?#g\032\202\032u\360?\350]\243\350j\321\367?i\263\347\257\351\304\340\277\336\t\217\235\241k\343?\211m\362\274\371\364\355\277\304viV\251\230\346\277\304viV\251\230\346\277 m%!f\231\322?\313\035n,h\271\327\277|l\316\374%J\346\277N\323\334|G[\351\2772X\353\006\365\035\252?\362\017[\326\207\207\343\277N\223\354\004\033\275\361\277\301\332\027\230H\r\360\277\023\375\237\007\225\344\326?K7\213\276\346\317\362\277o\274Xk(\367\362\277\220\024\367\222\270\025\337\277AcWcv\246\355\277\032\361\211\311\375\233\342\277U\213\237\t\2605\347\277\235\267\266\320\206\367\340?\235\267\266\320\206\367\340?o\374H\343T\225\352\277\322\346\356ozM\342\277 \251LVfv\340\277#g\032\202\032u\360?2X\353\006\365\035\252?\322\346\356ozM\342\277e\271\362N5\351\362?\023\375\237\007\225\344\326?e\271\362N5\351\362?h\200\255\213\354\227\312\277\304viV\251\230\346\277#g\032\202\032u\360?:\253\224\326\r\314\357\277AcWcv\246\355\277\377\377\300\337\261x\336\277\336\347\0220N\370\351\277o\036\305P\250\010\344?\220%\265Ib\317\353\277\276\276\246\311@\276\350\277i\263\347\257\351\304\340\277vt\033\370\220\321\360\277U\213\237\t\2605\347\277\235\267\266\320\206\367\340?\345_\345D\2124\360\277vt\033\370\220\321\360\277e\271\362N5\351\362?\350]\243\350j\321\367?\217\207!/\342\340\374?2X\353\006\365\035\252?e\350$\020\270\315\355\277\336\t\217\235\241k\343?\304viV\251\230\346\277\235\204|\254\211\312\332\277\211m\362\274\371\364\355\277\301\332\027\230H\r\360\277\330\000\036\342b9\361?\202\350iT\216G\326?\235\204|\254\211\312\332\277\365^\307\250>|\377?#g\032\202\032u\360? m%!f\231\322?\365^\307\250>|\377?\304viV\251\230\346\277\235\204|\254\211\312\332\277AcWcv\246\355\277\272\"U\013\3402\362\277\350]\243\350j\321\367?\014\343p\225\254\370\367?N\223\354\004\033\275\361\277\350]\243\350j\321\367?\235\267\266\320\206\367\340?\350]\243\350j\321\367?e\271\362N5\351\362?\220\366\202\210\337\352\360?\313\035n,h\271\327\277\257\263:m\2775\245?\014\343p\225\254\370\367? m%!f\231\322?\211m\362\274\371\364\355\277lq\265\333\235\303\360?lq\265\333\235\303\360? m%!f\231\322?vt\033\370\220\321\360\277\301\332\027\230H\r\360\277\032\361\211\311\375\233\342\277\345_\345D\2124\360\277e\271\362N5\351\362?\3772\373\003\257\245\344?\235\267\266\320\206\367\340? m%!f\231\322?o\353\212,\253\333\335\277A\312\347\026\315\246\274\277\235\267\266\320\206\367\340?\217\207!/\342\340\374?\321w\215\026}C\356\277\202\350iT\216G\326?\235\267\266\320\206\367\340? m%!f\231\322?vt\033\370\220\321\360\277\330\000\036\342b9\361?\330\215\363E9n\323\277\006\'\345\305\027]\320\277G\033\032\360\336\200\353\277\211m\362\274\371\364\355\277\365^\307\250>|\377?\014\343p\225\254\370\367?r\030\272\261\\\344\361\277|l\316\374%J\346\277AcWcv\246\355\277u\264\013p\275o\350\277\365^\307\250>|\377?b7LX\201\307\300\277#g\032\202\032u\360?o\036\305P\250\010\344?AcWcv\246\355\277:\253\224\326\r\314\357\277#g\032\202\032u\360?\211m\362\274\371\364\355\277\365^\307\250>|\377?e\271\362N5\351\362?i\263\347\257\351\304\340\277\023\375\237\007\225\344\326?2X\353\006\365\035\252?[2\244\337nV\330\277\350]\243\350j\321\367?L\026r\324@\317\002@U\213\237\t\2605\347\277\301\332\027\230H\r\360\277G\033\032\360\336\200\353\277\313\035n,h\271\327\277e\271\362N5\351\362?AcWcv\246\355\277\211m\362\274\371\364\355\277\330\215\363E9n\323\277\211m\362\274\371\364\355\277\301\332\027\230H\r\360\277\220\366\202\210\337\352\360?2X\353\006\365\035\252?\235\267\266\320\206\367\340?\211m\362\274\371\364\355\277\235\267\266\320\206\367\340?G\033\032\360\336\200\353\277I\272\020\216\014\342\003@\350]\243\350j\321\367?vt\033\370\220\321\360\277U\213\237\t\2605\347\277e\271\362N5\351\362?lq\265\333\235\303\360?\235\204|\254\211\312\332\277\365^\307\250>|\377?\014\343p\225\254\370\367?\014\201\004\260,\347\346\277\267\006\344<\330\343\352\277:\253\224\326\r\314\357\277-\252p\026:!\350\277\214+\300\350\255\363\375?\014\201\004\260,\347\346\277\345_\345D\2124\360\277i\263\347\257\351\304\340\277\006\272\007\236W\367\001@\023\375\237\007\225\344\326?\257\263:m\2775\245?\202\350iT\216G\326?i\263\347\257\351\304\340\277AcWcv\246\355\277\365^\307\250>|\377?\333|wd\255\365\003@\202\350iT\216G\326?e\271\362N5\351\362?hf\002\304?.\346?#g\032\202\032u\360?AcWcv\246\355\277e\271\362N5\351\362?o\036\305P\250\010\344?e\271\362N5\351\362?\014\201\004\260,\347\346\277\211m\362\274\371\364\355\277\211m\362\274\371\364\355\277 m%!f\231\322?R\357MKO\252\360\277o\274Xk(\367\362\277\023\375\237\007\225\344\326?AcWcv\246\355\277\226\335w\326\312\251\351\277\365^\307\250>|\377?i\263\347\257\351\304\340\277AcWcv\246\355\277N\323\334|G[\351\277\252\322\205X\007\014\315\277\014\201\004\260,\347\346\277N\323\334|G[\351\277U\213\237\t\2605\347\277 m%!f\231\322?Q\221\252\250\373Y\371? m%!f\231\322?vt\033\370\220\321\360\277\023\375\237\007\225\344\326?R\357MKO\252\360\277\304viV\251\230\346\277"
      }
    }
  }
}
node {
  name: "normalize_element/component_3"
  op: "Const"
  device: "/device:CPU:0"
  attr {
    key: "_output_shapes"
    value {
      list {
        shape {
          dim {
            size: 318
          }
        }
      }
    }
  }
  attr {
    key: "dtype"
    value {
      type: DT_DOUBLE
    }
  }
  attr {
    key: "value"
    value {
      tensor {
        dtype: DT_DOUBLE
        tensor_shape {
          dim {
            size: 318
          }
        }
        tensor_content: "\313\204\313\243\220z\320\277\023\212\342\320A\355\372?\001\366\376I\321\245\362?\351\2447\025\253\271\335\277\336\030\257*\001\302\330\277\232\372b\230\266k\357\277\355\225\003f@0\354?\202 ;\034q\250\344\277\224\264\036\243\341\357\354\277q\341\3179@f\300\277\313\204\313\243\220z\320\277\342\234\334x\344i\332\277\232\372b\230\266k\357\277\224\264\036\243\341\357\354\277\000\225sv\330;\362?\203O\360\305\024K\322?\332n\276\341\201\267\300?q\341\3179@f\300\277\336\030\257*\001\302\330\277\313\204\313\243\220z\320\277\001\366\376I\321\245\362?\211(\226\2707\370\347\277\211(\226\2707\370\347\277\001\366\376I\321\245\362?\217\001<\253Z\245\315\277\205\244hjTP\346\277\224\264\036\243\341\357\354\277_\260\211\377R\223\367\277^O\376+Z)\367\277\023\212\342\320A\355\372?q\341\3179@f\300\277\313\204\313\243\220z\320\277\232\372b\230\266k\357\277AZ\243\373iPT?\355(ec\216a\337\277\001\366\376I\321\245\362?Z\313\320\335v\201\365\277\213\352\254_)\314\350\277q\341\3179@f\300\277\374\020F(\365\223\360?\223\362\007\374\357\033\354\277[,\\\261o\353\365\277q\341\3179@f\300\277\326\020T\216:r\325\277O?H\363\314\211\360\277\222_\246\376\241\352\330?\207\371\340\016\224U\312\277\332\001 \337\317\350\343?\030\364\233M5\254\003@AZ\243\373iPT?\332n\276\341\201\267\300?\200\361\205r\315\005\307\277\213\352\254_)\314\350\277\2308L\361\304\227\356\277\207\371\340\016\224U\312\277\213\352\254_)\314\350\277z\030\340\177\252X\341\277\200^$u\177\324\343\277T$\001\025\251\233\362\277xV\311\330\270\204\340\277|\332\366&\234,\342\277\313\204\313\243\220z\320\277\355(ec\216a\337\277\2440\352\241\333\330\010@\202 ;\034q\250\344\277\345 \n\307\307\021\334\277\345 \n\307\307\021\334\277\345 \n\307\307\021\334\277\213\352\254_)\314\350\277\027\223\020z<B\003@\232\372b\230\266k\357\277\224\264\036\243\341\357\354\277T$\001\025\251\233\362\277\222_\246\376\241\352\330?\001\366\376I\321\245\362?\2308L\361\304\227\356\277\336\030\257*\001\302\330\277z\030\340\177\252X\341\277\336\030\257*\001\302\330\277\213\352\254_)\314\350\277\345 \n\307\307\021\334\277\n\300p\215\211\311\366?O?H\363\314\211\360\277\336\030\257*\001\302\330\277\2440\352\241\333\330\010@\374\020F(\365\223\360?\374\020F(\365\223\360?\001\366\376I\321\245\362?T$\001\025\251\233\362\277AZ\243\373iPT?\313\204\313\243\220z\320\277\374\020F(\365\223\360?\332n\276\341\201\267\300?\336\030\257*\001\302\330\277xV\311\330\270\204\340\277\2308L\361\304\227\356\277\323\214&@W\312\323\277\001\366\376I\321\245\362?\332n\276\341\201\267\300?\362\333G[\025\254\356?\2210\361T\376G\353\277\034x\311\233\030T\005@\313\204\313\243\220z\320\277\213\352\254_)\314\350\277\226v5J\323\303\355\277\205\244hjTP\346\277\035TT\024\372\020\377?\345 \n\307\307\021\334\277\200\313\302w1\243\320?\323\371\304B\t\231\340?q\341\3179@f\300\277\357W\032\r2\004\355?\200\313\302w1\243\320?\000\000\000\000\000\000\370\177\200\313\302w1\243\320?\332\001 \337\317\350\343?\001\366\376I\321\245\362?\2210\361T\376G\353\277\332n\276\341\201\267\300?\213\352\254_)\314\350\277\351~t\032\017W\307?\351~t\032\017W\307?xV\311\330\270\204\340\277\326\020T\216:r\325\277\355(ec\216a\337\277\345 \n\307\307\021\334\277\313\204\313\243\220z\320\277j%\373\222\261\333\251\277U\346\027\274\232o\363\277\224\264\036\243\341\357\354\277\351~t\032\017W\307?\226v5J\323\303\355\277O?H\363\314\211\360\277\217\001<\253Z\245\315\277|\332\366&\234,\342\277\313\204\313\243\220z\320\277\326\020T\216:r\325\277\345 \n\307\307\021\334\277\332n\276\341\201\267\300?\317\010\371\361s\"\322\277z\030\340\177\252X\341\277\202 ;\034q\250\344\277\357W\032\r2\004\355?\000\000\000\000\000\000\370\177z\030\340\177\252X\341\277\001\366\376I\321\245\362?q\341\3179@f\300\277\345\215\250\311y\340\350?\200\313\302w1\243\320?\360\206\317\266\325\246\312?\357W\032\r2\004\355?Z\313\320\335v\201\365\277O?H\363\314\211\360\277\211(\226\2707\370\347\277\351\2447\025\253\271\335\277\332n\276\341\201\267\300?\313\204\313\243\220z\320\277\332\224\201\334\035\032\327\277\326\020T\216:r\325\277\000\000\000\000\000\000\370\177\207\371\340\016\224U\312\277\345 \n\307\307\021\334\277Rb\352m\267\307\361\277O?H\363\314\211\360\277\374\020F(\365\223\360?\005\333\267k\255\267\364?\035TT\024\372\020\377?xV\311\330\270\204\340\277\202 ;\034q\250\344\277\332n\276\341\201\267\300?\202 ;\034q\250\344\277xV\311\330\270\204\340\277\213\352\254_)\314\350\277_\260\211\377R\223\367\277\334\3036\206\301\274\344?AZ\243\373iPT?\000\000\000\000\000\000\370\177&\243\306\262\311\341\t@\351\021\326\027]\210\352?\336\030\257*\001\302\330\277\021g@VW\257\371?\211(\226\2707\370\347\277\336\030\257*\001\302\330\277\2308L\361\304\227\356\277[,\\\261o\353\365\277\n\300p\215\211\311\366?\010\376Y\346\227\365\365?\232\372b\230\266k\357\277AZ\243\373iPT?q\341\3179@f\300\277\030o\233\362\035\377\374?\001\366\376I\321\245\362?\334\3036\206\301\274\344?\326\020T\216:r\325\277\336\030\257*\001\302\330\277\353\323\354\276N\\\353?q\341\3179@f\300\277\232\372b\230\266k\357\277\225 4iN9\002@\001\366\376I\321\245\362?AZ\243\373iPT?\224\264\036\243\341\357\354\277\224\264\036\243\341\357\354\277\217\001<\253Z\245\315\277\223\362\007\374\357\033\354\277\357W\032\r2\004\355?\332n\276\341\201\267\300?\345 \n\307\307\021\334\277\332n\276\341\201\267\300?\222_\246\376\241\352\330?\207f\177\021F$\347\277\2210\361T\376G\353\277\023\212\342\320A\355\372?\226v5J\323\303\355\277\332n\276\341\201\267\300?\2210\361T\376G\353\277AZ\243\373iPT?[,\\\261o\353\365\277\334\3036\206\301\274\344?\323\371\304B\t\231\340?\340Gd\324\244d\346?\215\254\303\006\033\240\351\277\205\244hjTP\346\277\023\212\342\320A\355\372?\3773\350\242\337\321\361?[,\\\261o\353\365\277\355(ec\216a\337\277O?H\363\314\211\360\277\313\204\313\243\220z\320\277\030o\233\362\035\377\374?\332n\276\341\201\267\300?\334\3036\206\301\274\344?\332n\276\341\201\267\300?\202 ;\034q\250\344\277\232\372b\230\266k\357\277\334\3036\206\301\274\344?\205\244hjTP\346\277\030o\233\362\035\377\374?\357W\032\r2\004\355?\345 \n\307\307\021\334\277\336\030\257*\001\302\330\277xV\311\330\270\204\340\277\016[\2652\270 \253?\017\245)\257e\333\370?\237K1\200\377\306\006@q\341\3179@f\300\277\213\352\254_)\314\350\277Q\001_\232\276]\361\277\226\275\020R\351/\264?\001\366\376I\321\245\362?|\332\366&\234,\342\277\345 \n\307\307\021\334\277\342\t{{\2268\347?\345 \n\307\307\021\334\277_\260\211\377R\223\367\277\374\020F(\365\223\360?xV\311\330\270\204\340\277q\341\3179@f\300\277\345 \n\307\307\021\334\277\332n\276\341\201\267\300?\215\254\303\006\033\240\351\277!\276\r\221\355\317\007@\017\245)\257e\333\370?\224\264\036\243\341\357\354\277\207\371\340\016\224U\312\277\001\366\376I\321\245\362?\001\366\376I\321\245\362?\336\030\257*\001\302\330\277\023\017\343+Y\232\001@\004\031\241\304\273\343\363?\345 \n\307\307\021\334\277\2210\361T\376G\353\277\2308L\361\304\227\356\277\200^$u\177\324\343\277\023\017\343+Y\232\001@\213\352\254_)\314\350\277Rb\352m\267\307\361\277\000\000\000\000\000\000\370\177\027\223\020z<B\003@\336\030\257*\001\302\330\277\207\371\340\016\224U\312\277\332n\276\341\201\267\300?|\332\366&\234,\342\277N\336\274\037\324\037\360\277\023\017\343+Y\232\001@\2440\352\241\333\330\010@\017\245)\257e\333\370?\001\366\376I\321\245\362?\323\371\304B\t\231\340?\355\225\003f@0\354?Q\001_\232\276]\361\277\001\366\376I\321\245\362?\336\030\257*\001\302\330\277\034\331To\021\276\005@\215\254\303\006\033\240\351\277\345 \n\307\307\021\334\277\232\372b\230\266k\357\277q\341\3179@f\300\277O?H\363\314\211\360\277O?H\363\314\211\360\277q\341\3179@f\300\277\224\264\036\243\341\357\354\277\202 ;\034q\250\344\277\001\366\376I\321\245\362?\336\030\257*\001\302\330\277T$\001\025\251\233\362\277\345 \n\307\307\021\334\277\207\371\340\016\224U\312\277\204\342Q\303b|\345\277xV\311\330\270\204\340\277~\234\r\316\215\000\343\277AZ\243\373iPT?\237K1\200\377\306\006@q\341\3179@f\300\277O?H\363\314\211\360\277q\341\3179@f\300\277P\240\323\306\305\363\360\277\332n\276\341\201\267\300?"
      }
    }
  }
}
node {
  name: "normalize_element/component_4"
  op: "Const"
  device: "/device:CPU:0"
  attr {
    key: "_output_shapes"
    value {
      list {
        shape {
          dim {
            size: 318
          }
        }
      }
    }
  }
  attr {
    key: "dtype"
    value {
      type: DT_INT64
    }
  }
  attr {
    key: "value"
    value {
      tensor {
        dtype: DT_INT64
        tensor_shape {
          dim {
            size: 318
          }
        }
        tensor_content: "K\000\000\000\000\000\000\000I\000\000\000\000\000\000\000J\000\000\000\000\000\000\000H\000\000\000\000\000\000\000P\000\000\000\000\000\000\000P\000\000\000\000\000\000\000N\000\000\000\000\000\000\000J\000\000\000\000\000\000\000G\000\000\000\000\000\000\000I\000\000\000\000\000\000\000I\000\000\000\000\000\000\000M\000\000\000\000\000\000\000P\000\000\000\000\000\000\000L\000\000\000\000\000\000\000M\000\000\000\000\000\000\000Q\000\000\000\000\000\000\000M\000\000\000\000\000\000\000L\000\000\000\000\000\000\000I\000\000\000\000\000\000\000K\000\000\000\000\000\000\000L\000\000\000\000\000\000\000P\000\000\000\000\000\000\000G\000\000\000\000\000\000\000I\000\000\000\000\000\000\000M\000\000\000\000\000\000\000M\000\000\000\000\000\000\000R\000\000\000\000\000\000\000N\000\000\000\000\000\000\000I\000\000\000\000\000\000\000M\000\000\000\000\000\000\000P\000\000\000\000\000\000\000L\000\000\000\000\000\000\000R\000\000\000\000\000\000\000K\000\000\000\000\000\000\000H\000\000\000\000\000\000\000I\000\000\000\000\000\000\000L\000\000\000\000\000\000\000K\000\000\000\000\000\000\000G\000\000\000\000\000\000\000L\000\000\000\000\000\000\000O\000\000\000\000\000\000\000R\000\000\000\000\000\000\000J\000\000\000\000\000\000\000R\000\000\000\000\000\000\000P\000\000\000\000\000\000\000L\000\000\000\000\000\000\000H\000\000\000\000\000\000\000K\000\000\000\000\000\000\000F\000\000\000\000\000\000\000N\000\000\000\000\000\000\000K\000\000\000\000\000\000\000K\000\000\000\000\000\000\000J\000\000\000\000\000\000\000R\000\000\000\000\000\000\000M\000\000\000\000\000\000\000J\000\000\000\000\000\000\000Q\000\000\000\000\000\000\000L\000\000\000\000\000\000\000P\000\000\000\000\000\000\000F\000\000\000\000\000\000\000L\000\000\000\000\000\000\000G\000\000\000\000\000\000\000L\000\000\000\000\000\000\000F\000\000\000\000\000\000\000O\000\000\000\000\000\000\000R\000\000\000\000\000\000\000P\000\000\000\000\000\000\000R\000\000\000\000\000\000\000N\000\000\000\000\000\000\000I\000\000\000\000\000\000\000J\000\000\000\000\000\000\000O\000\000\000\000\000\000\000G\000\000\000\000\000\000\000N\000\000\000\000\000\000\000H\000\000\000\000\000\000\000N\000\000\000\000\000\000\000G\000\000\000\000\000\000\000Q\000\000\000\000\000\000\000H\000\000\000\000\000\000\000Q\000\000\000\000\000\000\000K\000\000\000\000\000\000\000F\000\000\000\000\000\000\000P\000\000\000\000\000\000\000P\000\000\000\000\000\000\000I\000\000\000\000\000\000\000K\000\000\000\000\000\000\000I\000\000\000\000\000\000\000O\000\000\000\000\000\000\000N\000\000\000\000\000\000\000P\000\000\000\000\000\000\000J\000\000\000\000\000\000\000N\000\000\000\000\000\000\000Q\000\000\000\000\000\000\000I\000\000\000\000\000\000\000R\000\000\000\000\000\000\000M\000\000\000\000\000\000\000J\000\000\000\000\000\000\000F\000\000\000\000\000\000\000K\000\000\000\000\000\000\000O\000\000\000\000\000\000\000G\000\000\000\000\000\000\000H\000\000\000\000\000\000\000N\000\000\000\000\000\000\000Q\000\000\000\000\000\000\000O\000\000\000\000\000\000\000L\000\000\000\000\000\000\000I\000\000\000\000\000\000\000P\000\000\000\000\000\000\000K\000\000\000\000\000\000\000O\000\000\000\000\000\000\000G\000\000\000\000\000\000\000H\000\000\000\000\000\000\000N\000\000\000\000\000\000\000G\000\000\000\000\000\000\000O\000\000\000\000\000\000\000O\000\000\000\000\000\000\000J\000\000\000\000\000\000\000L\000\000\000\000\000\000\000G\000\000\000\000\000\000\000L\000\000\000\000\000\000\000H\000\000\000\000\000\000\000I\000\000\000\000\000\000\000Q\000\000\000\000\000\000\000Q\000\000\000\000\000\000\000G\000\000\000\000\000\000\000R\000\000\000\000\000\000\000N\000\000\000\000\000\000\000N\000\000\000\000\000\000\000M\000\000\000\000\000\000\000L\000\000\000\000\000\000\000R\000\000\000\000\000\000\000G\000\000\000\000\000\000\000J\000\000\000\000\000\000\000R\000\000\000\000\000\000\000M\000\000\000\000\000\000\000N\000\000\000\000\000\000\000P\000\000\000\000\000\000\000I\000\000\000\000\000\000\000L\000\000\000\000\000\000\000I\000\000\000\000\000\000\000R\000\000\000\000\000\000\000Q\000\000\000\000\000\000\000F\000\000\000\000\000\000\000J\000\000\000\000\000\000\000R\000\000\000\000\000\000\000F\000\000\000\000\000\000\000I\000\000\000\000\000\000\000O\000\000\000\000\000\000\000O\000\000\000\000\000\000\000F\000\000\000\000\000\000\000J\000\000\000\000\000\000\000K\000\000\000\000\000\000\000Q\000\000\000\000\000\000\000Q\000\000\000\000\000\000\000F\000\000\000\000\000\000\000N\000\000\000\000\000\000\000F\000\000\000\000\000\000\000I\000\000\000\000\000\000\000L\000\000\000\000\000\000\000P\000\000\000\000\000\000\000K\000\000\000\000\000\000\000G\000\000\000\000\000\000\000Q\000\000\000\000\000\000\000Q\000\000\000\000\000\000\000M\000\000\000\000\000\000\000H\000\000\000\000\000\000\000G\000\000\000\000\000\000\000N\000\000\000\000\000\000\000H\000\000\000\000\000\000\000J\000\000\000\000\000\000\000O\000\000\000\000\000\000\000N\000\000\000\000\000\000\000M\000\000\000\000\000\000\000P\000\000\000\000\000\000\000F\000\000\000\000\000\000\000N\000\000\000\000\000\000\000R\000\000\000\000\000\000\000I\000\000\000\000\000\000\000I\000\000\000\000\000\000\000P\000\000\000\000\000\000\000I\000\000\000\000\000\000\000H\000\000\000\000\000\000\000R\000\000\000\000\000\000\000N\000\000\000\000\000\000\000J\000\000\000\000\000\000\000H\000\000\000\000\000\000\000I\000\000\000\000\000\000\000J\000\000\000\000\000\000\000Q\000\000\000\000\000\000\000G\000\000\000\000\000\000\000I\000\000\000\000\000\000\000L\000\000\000\000\000\000\000O\000\000\000\000\000\000\000R\000\000\000\000\000\000\000F\000\000\000\000\000\000\000O\000\000\000\000\000\000\000N\000\000\000\000\000\000\000M\000\000\000\000\000\000\000F\000\000\000\000\000\000\000I\000\000\000\000\000\000\000G\000\000\000\000\000\000\000M\000\000\000\000\000\000\000K\000\000\000\000\000\000\000K\000\000\000\000\000\000\000N\000\000\000\000\000\000\000N\000\000\000\000\000\000\000K\000\000\000\000\000\000\000G\000\000\000\000\000\000\000O\000\000\000\000\000\000\000Q\000\000\000\000\000\000\000O\000\000\000\000\000\000\000K\000\000\000\000\000\000\000F\000\000\000\000\000\000\000H\000\000\000\000\000\000\000K\000\000\000\000\000\000\000K\000\000\000\000\000\000\000J\000\000\000\000\000\000\000L\000\000\000\000\000\000\000H\000\000\000\000\000\000\000N\000\000\000\000\000\000\000P\000\000\000\000\000\000\000Q\000\000\000\000\000\000\000M\000\000\000\000\000\000\000G\000\000\000\000\000\000\000K\000\000\000\000\000\000\000N\000\000\000\000\000\000\000H\000\000\000\000\000\000\000Q\000\000\000\000\000\000\000K\000\000\000\000\000\000\000H\000\000\000\000\000\000\000R\000\000\000\000\000\000\000L\000\000\000\000\000\000\000M\000\000\000\000\000\000\000H\000\000\000\000\000\000\000P\000\000\000\000\000\000\000M\000\000\000\000\000\000\000J\000\000\000\000\000\000\000G\000\000\000\000\000\000\000N\000\000\000\000\000\000\000N\000\000\000\000\000\000\000O\000\000\000\000\000\000\000O\000\000\000\000\000\000\000I\000\000\000\000\000\000\000G\000\000\000\000\000\000\000I\000\000\000\000\000\000\000Q\000\000\000\000\000\000\000J\000\000\000\000\000\000\000Q\000\000\000\000\000\000\000L\000\000\000\000\000\000\000G\000\000\000\000\000\000\000J\000\000\000\000\000\000\000G\000\000\000\000\000\000\000N\000\000\000\000\000\000\000F\000\000\000\000\000\000\000P\000\000\000\000\000\000\000M\000\000\000\000\000\000\000N\000\000\000\000\000\000\000J\000\000\000\000\000\000\000I\000\000\000\000\000\000\000M\000\000\000\000\000\000\000R\000\000\000\000\000\000\000F\000\000\000\000\000\000\000F\000\000\000\000\000\000\000N\000\000\000\000\000\000\000N\000\000\000\000\000\000\000K\000\000\000\000\000\000\000H\000\000\000\000\000\000\000P\000\000\000\000\000\000\000H\000\000\000\000\000\000\000H\000\000\000\000\000\000\000L\000\000\000\000\000\000\000P\000\000\000\000\000\000\000R\000\000\000\000\000\000\000L\000\000\000\000\000\000\000F\000\000\000\000\000\000\000P\000\000\000\000\000\000\000P\000\000\000\000\000\000\000P\000\000\000\000\000\000\000F\000\000\000\000\000\000\000K\000\000\000\000\000\000\000F\000\000\000\000\000\000\000Q\000\000\000\000\000\000\000K\000\000\000\000\000\000\000N\000\000\000\000\000\000\000M\000\000\000\000\000\000\000F\000\000\000\000\000\000\000N\000\000\000\000\000\000\000I\000\000\000\000\000\000\000O\000\000\000\000\000\000\000N\000\000\000\000\000\000\000M\000\000\000\000\000\000\000I\000\000\000\000\000\000\000O\000\000\000\000\000\000\000F\000\000\000\000\000\000\000Q\000\000\000\000\000\000\000H\000\000\000\000\000\000\000Q\000\000\000\000\000\000\000M\000\000\000\000\000\000\000P\000\000\000\000\000\000\000G\000\000\000\000\000\000\000K\000\000\000\000\000\000\000P\000\000\000\000\000\000\000M\000\000\000\000\000\000\000F\000\000\000\000\000\000\000G\000\000\000\000\000\000\000L\000\000\000\000\000\000\000R\000\000\000\000\000\000\000K\000\000\000\000\000\000\000R\000\000\000\000\000\000\000R\000\000\000\000\000\000\000R\000\000\000\000\000\000\000I\000\000\000\000\000\000\000F\000\000\000\000\000\000\000L\000\000\000\000\000\000\000O\000\000\000\000\000\000\000G\000\000\000\000\000\000\000Q\000\000\000\000\000\000\000M\000\000\000\000\000\000\000"
      }
    }
  }
}
node {
  name: "normalize_element/component_5"
  op: "Const"
  device: "/device:CPU:0"
  attr {
    key: "_output_shapes"
    value {
      list {
        shape {
          dim {
            size: 318
          }
        }
      }
    }
  }
  attr {
    key: "dtype"
    value {
      type: DT_INT64
    }
  }
  attr {
    key: "value"
    value {
      tensor {
        dtype: DT_INT64
        tensor_shape {
          dim {
            size: 318
          }
        }
        tensor_content: "\001\000\000\000\000\000\000\000\001\000\000\000\000\000\000\000\001\000\000\000\000\000\000\000\002\000\000\000\000\000\000\000\001\000\000\000\000\000\000\000\002\000\000\000\000\000\000\000\001\000\000\000\000\000\000\000\001\000\000\000\000\000\000\000\001\000\000\000\000\000\000\000\001\000\000\000\000\000\000\000\001\000\000\000\000\000\000\000\001\000\000\000\000\000\000\000\002\000\000\000\000\000\000\000\003\000\000\000\000\000\000\000\001\000\000\000\000\000\000\000\003\000\000\000\000\000\000\000\003\000\000\000\000\000\000\000\001\000\000\000\000\000\000\000\003\000\000\000\000\000\000\000\001\000\000\000\000\000\000\000\001\000\000\000\000\000\000\000\002\000\000\000\000\000\000\000\002\000\000\000\000\000\000\000\001\000\000\000\000\000\000\000\001\000\000\000\000\000\000\000\002\000\000\000\000\000\000\000\001\000\000\000\000\000\000\000\002\000\000\000\000\000\000\000\002\000\000\000\000\000\000\000\001\000\000\000\000\000\000\000\003\000\000\000\000\000\000\000\001\000\000\000\000\000\000\000\003\000\000\000\000\000\000\000\001\000\000\000\000\000\000\000\001\000\000\000\000\000\000\000\001\000\000\000\000\000\000\000\003\000\000\000\000\000\000\000\003\000\000\000\000\000\000\000\001\000\000\000\000\000\000\000\001\000\000\000\000\000\000\000\002\000\000\000\000\000\000\000\002\000\000\000\000\000\000\000\001\000\000\000\000\000\000\000\001\000\000\000\000\000\000\000\003\000\000\000\000\000\000\000\001\000\000\000\000\000\000\000\003\000\000\000\000\000\000\000\001\000\000\000\000\000\000\000\001\000\000\000\000\000\000\000\001\000\000\000\000\000\000\000\001\000\000\000\000\000\000\000\002\000\000\000\000\000\000\000\002\000\000\000\000\000\000\000\003\000\000\000\000\000\000\000\003\000\000\000\000\000\000\000\001\000\000\000\000\000\000\000\001\000\000\000\000\000\000\000\001\000\000\000\000\000\000\000\003\000\000\000\000\000\000\000\001\000\000\000\000\000\000\000\002\000\000\000\000\000\000\000\003\000\000\000\000\000\000\000\002\000\000\000\000\000\000\000\001\000\000\000\000\000\000\000\001\000\000\000\000\000\000\000\001\000\000\000\000\000\000\000\001\000\000\000\000\000\000\000\003\000\000\000\000\000\000\000\001\000\000\000\000\000\000\000\001\000\000\000\000\000\000\000\003\000\000\000\000\000\000\000\001\000\000\000\000\000\000\000\002\000\000\000\000\000\000\000\001\000\000\000\000\000\000\000\001\000\000\000\000\000\000\000\003\000\000\000\000\000\000\000\002\000\000\000\000\000\000\000\001\000\000\000\000\000\000\000\001\000\000\000\000\000\000\000\003\000\000\000\000\000\000\000\002\000\000\000\000\000\000\000\001\000\000\000\000\000\000\000\003\000\000\000\000\000\000\000\003\000\000\000\000\000\000\000\001\000\000\000\000\000\000\000\001\000\000\000\000\000\000\000\001\000\000\000\000\000\000\000\001\000\000\000\000\000\000\000\003\000\000\000\000\000\000\000\001\000\000\000\000\000\000\000\001\000\000\000\000\000\000\000\001\000\000\000\000\000\000\000\001\000\000\000\000\000\000\000\002\000\000\000\000\000\000\000\001\000\000\000\000\000\000\000\003\000\000\000\000\000\000\000\003\000\000\000\000\000\000\000\001\000\000\000\000\000\000\000\001\000\000\000\000\000\000\000\001\000\000\000\000\000\000\000\001\000\000\000\000\000\000\000\001\000\000\000\000\000\000\000\003\000\000\000\000\000\000\000\003\000\000\000\000\000\000\000\002\000\000\000\000\000\000\000\001\000\000\000\000\000\000\000\001\000\000\000\000\000\000\000\002\000\000\000\000\000\000\000\002\000\000\000\000\000\000\000\001\000\000\000\000\000\000\000\001\000\000\000\000\000\000\000\001\000\000\000\000\000\000\000\002\000\000\000\000\000\000\000\001\000\000\000\000\000\000\000\001\000\000\000\000\000\000\000\001\000\000\000\000\000\000\000\001\000\000\000\000\000\000\000\001\000\000\000\000\000\000\000\001\000\000\000\000\000\000\000\003\000\000\000\000\000\000\000\002\000\000\000\000\000\000\000\002\000\000\000\000\000\000\000\001\000\000\000\000\000\000\000\001\000\000\000\000\000\000\000\001\000\000\000\000\000\000\000\001\000\000\000\000\000\000\000\001\000\000\000\000\000\000\000\002\000\000\000\000\000\000\000\002\000\000\000\000\000\000\000\002\000\000\000\000\000\000\000\001\000\000\000\000\000\000\000\003\000\000\000\000\000\000\000\003\000\000\000\000\000\000\000\003\000\000\000\000\000\000\000\001\000\000\000\000\000\000\000\003\000\000\000\000\000\000\000\003\000\000\000\000\000\000\000\001\000\000\000\000\000\000\000\001\000\000\000\000\000\000\000\003\000\000\000\000\000\000\000\001\000\000\000\000\000\000\000\002\000\000\000\000\000\000\000\001\000\000\000\000\000\000\000\001\000\000\000\000\000\000\000\001\000\000\000\000\000\000\000\001\000\000\000\000\000\000\000\001\000\000\000\000\000\000\000\001\000\000\000\000\000\000\000\001\000\000\000\000\000\000\000\002\000\000\000\000\000\000\000\001\000\000\000\000\000\000\000\003\000\000\000\000\000\000\000\001\000\000\000\000\000\000\000\002\000\000\000\000\000\000\000\002\000\000\000\000\000\000\000\001\000\000\000\000\000\000\000\002\000\000\000\000\000\000\000\002\000\000\000\000\000\000\000\001\000\000\000\000\000\000\000\002\000\000\000\000\000\000\000\003\000\000\000\000\000\000\000\001\000\000\000\000\000\000\000\003\000\000\000\000\000\000\000\003\000\000\000\000\000\000\000\001\000\000\000\000\000\000\000\001\000\000\000\000\000\000\000\001\000\000\000\000\000\000\000\001\000\000\000\000\000\000\000\001\000\000\000\000\000\000\000\001\000\000\000\000\000\000\000\001\000\000\000\000\000\000\000\001\000\000\000\000\000\000\000\003\000\000\000\000\000\000\000\002\000\000\000\000\000\000\000\001\000\000\000\000\000\000\000\001\000\000\000\000\000\000\000\001\000\000\000\000\000\000\000\001\000\000\000\000\000\000\000\001\000\000\000\000\000\000\000\001\000\000\000\000\000\000\000\001\000\000\000\000\000\000\000\002\000\000\000\000\000\000\000\001\000\000\000\000\000\000\000\001\000\000\000\000\000\000\000\003\000\000\000\000\000\000\000\001\000\000\000\000\000\000\000\001\000\000\000\000\000\000\000\002\000\000\000\000\000\000\000\001\000\000\000\000\000\000\000\001\000\000\000\000\000\000\000\001\000\000\000\000\000\000\000\001\000\000\000\000\000\000\000\001\000\000\000\000\000\000\000\001\000\000\000\000\000\000\000\001\000\000\000\000\000\000\000\001\000\000\000\000\000\000\000\001\000\000\000\000\000\000\000\003\000\000\000\000\000\000\000\001\000\000\000\000\000\000\000\001\000\000\000\000\000\000\000\001\000\000\000\000\000\000\000\003\000\000\000\000\000\000\000\002\000\000\000\000\000\000\000\003\000\000\000\000\000\000\000\002\000\000\000\000\000\000\000\001\000\000\000\000\000\000\000\001\000\000\000\000\000\000\000\001\000\000\000\000\000\000\000\001\000\000\000\000\000\000\000\003\000\000\000\000\000\000\000\002\000\000\000\000\000\000\000\001\000\000\000\000\000\000\000\001\000\000\000\000\000\000\000\002\000\000\000\000\000\000\000\001\000\000\000\000\000\000\000\001\000\000\000\000\000\000\000\001\000\000\000\000\000\000\000\001\000\000\000\000\000\000\000\001\000\000\000\000\000\000\000\002\000\000\000\000\000\000\000\003\000\000\000\000\000\000\000\002\000\000\000\000\000\000\000\002\000\000\000\000\000\000\000\001\000\000\000\000\000\000\000\001\000\000\000\000\000\000\000\003\000\000\000\000\000\000\000\001\000\000\000\000\000\000\000\001\000\000\000\000\000\000\000\002\000\000\000\000\000\000\000\001\000\000\000\000\000\000\000\001\000\000\000\000\000\000\000\001\000\000\000\000\000\000\000\001\000\000\000\000\000\000\000\001\000\000\000\000\000\000\000\003\000\000\000\000\000\000\000\001\000\000\000\000\000\000\000\002\000\000\000\000\000\000\000\001\000\000\000\000\000\000\000\001\000\000\000\000\000\000\000\001\000\000\000\000\000\000\000\001\000\000\000\000\000\000\000\001\000\000\000\000\000\000\000\001\000\000\000\000\000\000\000\001\000\000\000\000\000\000\000\001\000\000\000\000\000\000\000\003\000\000\000\000\000\000\000\002\000\000\000\000\000\000\000\001\000\000\000\000\000\000\000\003\000\000\000\000\000\000\000\001\000\000\000\000\000\000\000\002\000\000\000\000\000\000\000\003\000\000\000\000\000\000\000\002\000\000\000\000\000\000\000\003\000\000\000\000\000\000\000\002\000\000\000\000\000\000\000\001\000\000\000\000\000\000\000\001\000\000\000\000\000\000\000\001\000\000\000\000\000\000\000\003\000\000\000\000\000\000\000\001\000\000\000\000\000\000\000\002\000\000\000\000\000\000\000\001\000\000\000\000\000\000\000\001\000\000\000\000\000\000\000\003\000\000\000\000\000\000\000\003\000\000\000\000\000\000\000\001\000\000\000\000\000\000\000\001\000\000\000\000\000\000\000\001\000\000\000\000\000\000\000\001\000\000\000\000\000\000\000\001\000\000\000\000\000\000\000\002\000\000\000\000\000\000\000\003\000\000\000\000\000\000\000\003\000\000\000\000\000\000\000\002\000\000\000\000\000\000\000\001\000\000\000\000\000\000\000\003\000\000\000\000\000\000\000\002\000\000\000\000\000\000\000\001\000\000\000\000\000\000\000\001\000\000\000\000\000\000\000\001\000\000\000\000\000\000\000\001\000\000\000\000\000\000\000\001\000\000\000\000\000\000\000\001\000\000\000\000\000\000\000\001\000\000\000\000\000\000\000\001\000\000\000\000\000\000\000\001\000\000\000\000\000\000\000\001\000\000\000\000\000\000\000\001\000\000\000\000\000\000\000\001\000\000\000\000\000\000\000\001\000\000\000\000\000\000\000\001\000\000\000\000\000\000\000\001\000\000\000\000\000\000\000\001\000\000\000\000\000\000\000\001\000\000\000\000\000\000\000\003\000\000\000\000\000\000\000\003\000\000\000\000\000\000\000\003\000\000\000\000\000\000\000\001\000\000\000\000\000\000\000\003\000\000\000\000\000\000\000\003\000\000\000\000\000\000\000\001\000\000\000\000\000\000\000\001\000\000\000\000\000\000\000\001\000\000\000\000\000\000\000\001\000\000\000\000\000\000\000\001\000\000\000\000\000\000\000\001\000\000\000\000\000\000\000\001\000\000\000\000\000\000\000\001\000\000\000\000\000\000\000\001\000\000\000\000\000\000\000\001\000\000\000\000\000\000\000\001\000\000\000\000\000\000\000\001\000\000\000\000\000\000\000\001\000\000\000\000\000\000\000\001\000\000\000\000\000\000\000\003\000\000\000\000\000\000\000\001\000\000\000\000\000\000\000\001\000\000\000\000\000\000\000\002\000\000\000\000\000\000\000"
      }
    }
  }
}
node {
  name: "normalize_element/component_6"
  op: "Const"
  device: "/device:CPU:0"
  attr {
    key: "_output_shapes"
    value {
      list {
        shape {
          dim {
            size: 318
          }
        }
      }
    }
  }
  attr {
    key: "dtype"
    value {
      type: DT_DOUBLE
    }
  }
  attr {
    key: "value"
    value {
      tensor {
        dtype: DT_DOUBLE
        tensor_shape {
          dim {
            size: 318
          }
        }
        tensor_content: "\243G\333\311\372\356\356?\030\306^\222\245\006\000@~e\365m\234y\370?\332Z\\\206\242~u?\351\346\'\266\225\244\326\277\375\004\365y=\006\325?\327]\\\201\311\226\321?\003>\331\344w\374\343\277\325T\"\245\235u\363\277\347\260W\273\371\023\242\277\366\351\223\373\032\217\265\277\236)\2324\276\303\320\277o\252J\240z\014\236\277\306P\257m\234\312\362\277\375\276j\025\265\366\371?\tu\016\300\314\307\266\277\3309f\022\303o\323\277D!\032c\222\321\351?\227\275N:\350;\360\277\255>\340\005\331\027\326?\244l\306\354\313l\362?A\344\320Ya\264\357\277\314\265o\033,\\\361\277\010\032\217\340\344\027\370?E~\373\273\376\277\351\277m\r/O\347\276\363\277j\323<s\0057\360\277\244\343\010Q\n\343\362\277\017\324J\023\222#\365\277\222=\205\343\034\270\366?\276\364/\033d+\345\277\211u\000.D\254\320?\032/o\336\301D\363\277\322\336:\310g}\342?d\261\257\374\256\037\346\277\304&\337\356\221L\003@\204\260T\020Z\203\366\277\351~\t\\\213\254\356\277\252\023\0224+\016\333?\212\236\322Y\253\236\364?\005\306;\3710\010\364\277\215@\343\217\227\036\360\277\203\260\007\372\370\226\333?\367Z\237\033\360\273\300\277\003\214I\035O\200\360\277r\214P\010I\330\362?\343\233\310\023\330\232\350\277\331I\221\016s\256\315?\025@I\367\006\277\372?\367\256X\326\341\362\336?\312\353\223\253T\252\263?\347\260W\273\371\023\242\277\365H\212\267\252\317\353\277\270L<6\233\037\362\277.@\235\'G^\310\277j\323<s\0057\360\277\332\374\025\212f\201\346\277\024\202\261zI\327\246?\225p9\211\0316\363\277\345\335\240\303\010\227\335\277/\310\262%\237}\355\277/7\017\266\216\177\354\277\204u\007\255o}\343\277\217\022\267\021o\256\373?\300\353\356\277\0149\364\2776\361\312\350;\213\331\277\027\210\245\001\002\361\277\277\270\236\223w\010\030\357\277~\216\307\231\003l\354\277\340\021\314o\243\336\002@\262\347{\210\013\216\363\277.\352\371\004\300y\357\277\304\003\232\274\315\304\365\277\3359_\223\227\236\340?a\314k\217\211%\366?\257\255\211\254)\006\360\277\303\247`\001\313@\360\277\254<1v\363\354\331\277\345\350\335\304\246\240\345\277\367\004\374\370h\327\347\277\353\334\360@\236\177\225\277\273J9\021)7\350?\302\311\247\340\353<\362\277\022(\353\020\247\037\324\277\312\034C\0142\334\002@(\313\303\273\270\367\373?\362T\"@QW\363?\244l\306\354\313l\362?\247\035\373,\354j\366\277\362\004\003x\224\250\312\277\032\375\016A\242s\303?\016\253x\347*1\341?b\356\377\204\013\016\323\277a\206\341*\001\026\353\277\261Ri!T\254\250?B\001\326\250\343\275\361\277\307\002?5\305F\346\277\323M\227XW\177\341?\233\250(@\211\325\354?]\264\300\222\310\231\364?\345\350\335\304\246\240\345\277\215VE\320\260\246\377?\335\'\344[\024\213\341\277j%\224\264r/\355\277\215@\343\217\227\036\360\277\236BS\242&\341\346?]\303\344\234\374\027\375?\016\231\375\257\247\035\342\277\302\203\035|c-\327\277\270\325\371\321\\\251\361?J\017\230\254\343\354\327?\345=\2143c.\371?\335\233\317\222\003l\313\277\026\027\304\341\000\271\361\277\207\271\216\354\205\244\324?\340\202uy\255\244\354?\374\332q\021\224t\000@\037]\3111\375D\337\277\030K\030\325J\310\216\277s\304F>\344H\357\277Y\3636V$h\251\277\320f\361q\255F\300\277\346\330\021\035\t\270\342?\016\037d\036\032\022\333\277\364\331-\'\273\315\354\277p\001\227\306@7\334\277x\326\272\366;\213\313?j{7\327\371\023\306\277S?;\274\306\360\365\277\362\313d\244\217\315\363\277\177\344j\274\212P\305\277\002,\021\227\223\374\371\277l/v.\010\273\365\277\351w\313%\246\242\327\277\021\220\274TP+\361\277\225\250/\277\264\246\337\277\345W:U\226\242\344\277\352\363\330niV\254?0\'C\016\361\226\351?\356\366\354\336\007\274\346\277\000\244\256\202\332\360\351\277%\327[D_\177\323?\\\223\324:\260\033\342??Z\014\314#j\276\277\013n/\336\371\023\347\277\335\312\002\003\250\234\341?,\204+\346\210V\314\277\233\315\023cZS\360?\\\230c\341\257\372\334\277\034=8a\355D\354\277kI\3279\332B\366?\204\260T\020Z\203\366\277\225\"\311PB\262\346\277dm\207\021\253N\314?\021\333\325_\330\031\327\277\225\314%.\273\315\335?PH|\027\036\343\346\277[)\007Q\300\370\335\277G\300\323k/\274\336\277\230\031\210\365\352\277\365\277|E\261\263\355e\340\277\372H\2038\177\376\330?dn|\305u\245\361\277_\t\274\027\346\023\363\277?_\305r\367=\366?\342\201\032\362\244&\375?\"\361f\232\367\345\002@\235\241I^\266!\275?>\351*\254\"2\360\277\261^q\326\350\027\351?s,e\230\356@\327\277\317\2108Q\316B\302\277a\206\341*\001\026\353\277(v\025M\374i\350\277e2\207\304!5\344?\037\351\335\372\rd\345?\267`\031\347\242q\262? \233m\3026\340\370?J\272\351=\'_\364?\250W\240\362l\006\337?\345\0070\215Cn\002@@ys\224*\262\341\277vW3j\234J\322\277s\304F>\344H\357\277\307=\214\230\257L\371\277\355m\342,\345E\374?\325[`\333\202\177\372?r\003\223l\207N\363\277\340\202uy\255\244\354?#\033\352\002\241w\327?S\310\370W\210z\365?Be\250!\324\311\355?V\363\306)6\204\360?H/0\374\036\276\335\277\255\253\215\006\343\356\330\277<%\323\226\025\266\362?\311\320+\256\006b\341?\244\343\010Q\n\343\362\277\327r\031\3461\305\000@\210\214\n\014\307\236\352?\346Gn\255\370\271\341?\220z\325ky\246\363\277\362\313d\244\217\315\363\277M\026p\017\213\317\324\277\306P\257m\234\312\362\277\335|\222\312\320\030\365?\352\350\326E{\317\322?R\300\305m\330\031\311?\037\201\277\240\003l\335?\365\303\356\374.=\253\277d\303*423\345?\237\312h\240~\000\314?\320\"\311\206\251u\346?\257\220\204]\247\374\355\277\356<wC\220\313\361?zys\312\221u\341?\035\234\310I?^\350?\375&\211o\277\356\361\277\372\363\324\311\302p\365?\265\021U\246\356@\311?Z\031\334T\020\272\263\277V\274`\317\341\362\355\277V\274`\317\341\362\355\277\r\332\226We\347\000@Z\245\371\274\371\r\000@\244\343\010Q\n\343\362\277\341\337V\322\031\223\354\277B\001\326\250\343\275\361\277\326[\255\361\343k\325\277\244{\352\366\377\352\372?\347\260W\273\371\023\242\277\207d\340}\311\026\361?g1,=\031\267\364?UM\004?\362\360\356\277\000a{K\241v\365\277\021(\236\372E3\371?E~\373\273\376\277\351\277O\277qe\373l\374?V\316\333\006e\006\355?\3309f\022\303o\323\277^\347\'\"d+\326?\207\020\333\022L\317\222?\277\322\350;C/\343\277/}\231\032\027\217\367?\032R\264\020\206\314\000@\204j\312\253\321s\333\277[`m\253\024\212\360\277\257\377\340\355\226\376\354\277\365\303\356\374.=\253\277\242\037\261;\375f\365?M\256Q\265\200\327\354\277\215@\343\217\227\036\360\277\3359_\223\227\236\340?\215@\343\217\227\036\360\277Vj\t\216t\372\360\277B\212\223D\245G\361?\246\0109: t\207\277A\366K\221\344\307\356?\211\351\353d3\215\352\277\356w\304\246z\321\344?\201vb4x\373\362\277F \277\333\211S\372?\315\367\372\264\373k\353?\357\"\0268\276C\361\277\356eIo\367\275\345\2771\331\322\325\031\023\375?\210\214\n\014\307\236\352??\020\212\206)X\241?\nT\201\274\306\237\373?XO\000\3458\010\366?\3242\216\257\033\215\326?\273\311aI\266!\352\277<\234\025\373S,\363\277\364\331-\'\273\315\354\277\021\031z\360\021\265\360?\205\302\034^>\203\340\277\335\363\324.\017\217\365\2771Gu\212\356@\265\277\006<\326\277\005\024\372?\376Q\n+\014\014\322?\357H\2216\326\240\316\277\230_\022Zs\317\340?\350\231\022\005\307\236\331\277\247\035\373,\354j\366\277B\231\267N\331\305\371?\364\346\031\270>\002\301?\372AE\002\232\364\341?\337\244\274X\316\240\356?Y\371\251\330\022\020\350?<\361\303i\020\272\346?8\204j\376\222\240\361\277\017\032\325w\0323\340?S\205\305 O\000\341?\037\275\264\241W\334\372?\254<1v\363\354\331\277\276\261\374\343*\261\360\277\314\265o\033,\\\361\277\000\266)\272]\004\351?\003\214I\035O\200\360\277S\320\336+\327\356\366\277G\216a\220^\201\262\277Hf\226VsO\360\277s\304F>\344H\357\277U_\177vu\004\356?\272Z\005\271\306\037\353\277UM\004?\362\360\356\277d\261\257\374\256\037\346\277+\234\367\357B\366\206?\230\323\375\220b\260\332\2773\306\374\026\216\201\336\277\3309f\022\303o\323\277g\007\262sHZ\306?p\337\002\321\276N\377?8\3212\231\000\272\323?\225\337\225\031\t8\362\277^\345x\222~\000\332\277\254\202\273\332{\374\364\277\346L\375S\370\230\334\277"
      }
    }
  }
}
node {
  name: "normalize_element/component_7"
  op: "Const"
  device: "/device:CPU:0"
  attr {
    key: "_output_shapes"
    value {
      list {
        shape {
          dim {
            size: 318
          }
        }
      }
    }
  }
  attr {
    key: "dtype"
    value {
      type: DT_DOUBLE
    }
  }
  attr {
    key: "value"
    value {
      tensor {
        dtype: DT_DOUBLE
        tensor_shape {
          dim {
            size: 318
          }
        }
        tensor_content: "\000\000\000\000\000\0002@\000\000\000\000\000\000*@\000\000\000\000\000\000,@\000\000\000\000\000\0005@\000\000\000\000\000\000<@\000\000\000\000\000\000>@\232\231\231\231\231\0312@\000\000\000\000\000\000:@\000\000\000\000\000\000:@\000\000\000\000\000\0002@\000\000\000\000\000\0007@\000\000\000\000\000\2009@333333B@\000\000\000\000\000\000@@\000\000\000\000\000\0000@ffffff9@\000\000\000\000\000\2005@\000\000\000\000\000\0004@\000\000\000\000\000\0002@\000\000\000\000\000\0003@\000\000\000\000\000\000*@\000\000\000\000\000\300D@\000\000\000\000\000\000>@\000\000\000\000\000\000,@\000\000\000\000\000\2009@\000\000\000\000\000\000=@\000\000\000\000\000\000B@\315\314\314\314\314\214E@\000\000\000\000\000\000=@\000\000\000\000\000\000/@33333\2637@\000\000\000\000\000\2001@\000\000\000\000\000\000@@\000\000\000\000\000\0002@\000\000\000\000\000\0006@\000\000\000\000\000\000&@\000\000\000\000\000\200@@\000\000\000\000\000\000=@\000\000\000\000\000\0001@\000\000\000\000\000\000*@fffff\346?@\000\000\000\000\000\000F@\000\000\000\000\000\000.@\000\000\000\000\000\0008@ffffffD@\000\000\000\000\000\000/@\000\000\000\000\000\0003@\000\000\000\000\000\000*@\000\000\000\000\000\000$@\232\231\231\231\231\2314@\000\000\000\000\000\0005@\000\000\000\000\000\0006@\000\000\000\000\000\000:@\000\000\000\000\000\200B@\000\000\000\000\000\0006@\000\000\000\000\000\000<@\000\000\000\000\000\000>@\000\000\000\000\000\0008@\315\314\314\314\314\014C@\000\000\000\000\000\0005@\000\000\000\000\000\000;@\000\000\000\000\000\0009@\000\000\000\000\000\000<@\000\000\000\000\000\000,@\232\231\231\231\231\331A@\000\000\000\000\000\000;@ffffff:@\000\000\000\000\000\000B@fffff\346>@\000\000\000\000\000\000(@\000\000\000\000\000\000?@\000\000\000\000\000@A@\000\000\000\000\000\000;@\232\231\231\231\231\0312@\000\000\000\000\000\000.@\000\000\000\000\000\200=@\000\000\000\000\000\000<@\232\231\231\231\231\231:@\000\000\000\000\000\0004@333333@@\000\000\000\000\000\0007@\000\000\000\000\000\000,@\232\231\231\231\231\231B@\315\314\314\314\314\314=@\000\000\000\000\000\000(@\000\000\000\000\000\000.@\000\000\000\000\000\000*@\000\000\000\000\000\2002@\315\314\314\314\314\014B@fffff\346;@\000\000\000\000\000\0004@3333333@\000\000\000\000\000\2007@\000\000\000\000\000\000:@\000\000\000\000\000\000C@\000\000\000\000\000\200?@\000\000\000\000\000\000:@\000\000\000\000\000\0000@\000\000\000\000\000\000.@\000\000\000\000\000\000/@\000\000\000\000\000\0006@\000\000\000\000\000\000&@\232\231\231\231\231\0315@\232\231\231\231\231\331@@fffff\246B@\000\000\000\000\000\0002@\000\000\000\000\000\000(@\000\000\000\000\000\200A@\000\000\000\000\000\0009@\000\000\000\000\000\0007@\000\000\000\000\000\0002@\000\000\000\000\000\000*@\232\231\231\231\231\2315@\000\000\000\000\000\0009@\000\000\000\000\000\2005@\232\231\231\231\231\2311@\000\000\000\000\000\000*@\000\000\000\000\000\200:@\000\000\000\000\000\0002@\000\000\000\000\000\000<@\000\000\000\000\000\0002@\000\000\000\000\000\0003@\232\231\231\231\231\2311@\315\314\314\314\314\3149@\000\000\000\000\000\0007@\000\000\000\000\000\000<@\000\000\000\000\000\2004@\315\314\314\314\314L4@\000\000\000\000\000\000B@\000\000\000\000\000\000=@\000\000\000\000\000\0006@\000\000\000\000\000\200A@\000\000\000\000\000\000@@\000\000\000\000\000\000@@\000\000\000\000\000\300@@\000\000\000\000\000\200;@\000\000\000\000\000\200B@\000\000\000\000\000\0002@\000\000\000\000\000\2002@\000\000\000\000\000\0006@\000\000\000\000\000\000@@\232\231\231\231\231\031<@\000\000\000\000\000\0001@\000\000\000\000\000\0005@\000\000\000\000\000\000B@\000\000\000\000\000\0002@\000\000\000\000\000\0002@3333332@\315\314\314\314\314\314<@\000\000\000\000\000\000:@\000\000\000\000\000\0000@\000\000\000\000\000\200@@fffff\346=@33333\263>@\000\000\000\000\000\0009@fffff\3463@\000\000\000\000\000\0009@\000\000\000\000\000\0004@\000\000\000\000\000\0009@33333sD@\000\000\000\000\000\0008@\000\000\000\000\000\0003@\232\231\231\231\231\331B@\000\000\000\000\000\200B@\000\000\000\000\000\000/@\000\000\000\000\000\000*@\000\000\000\000\000\000(@\315\314\314\314\314\3144@\000\000\000\000\000\0009@\000\000\000\000\000\0000@ffffff;@\315\314\314\314\314\3147@\000\000\000\000\000\000:@33333\263E@\000\000\000\000\000\0002@3333333@\000\000\000\000\000\0007@\000\000\000\000\000\0000@\000\000\000\000\000\000,@\232\231\231\231\231\0313@\000\000\000\000\000\000(@\000\000\000\000\000\0006@\000\000\000\000\000\000;@\000\000\000\000\000\000>@\000\000\000\000\000\000?@\000\000\000\000\000\000(@\000\000\000\000\000\000*@\000\000\000\000\000\000:@\232\231\231\231\231\231:@\000\000\000\000\000\0003@\000\000\000\000\000\000*@\000\000\000\000\000\000*@\000\000\000\000\000\0001@\000\000\000\000\000\000:@\000\000\000\000\000\0005@\000\000\000\000\000\2000@\000\000\000\000\000\2004@\000\000\000\000\000\000>@\000\000\000\000\000\000\"@\000\000\000\000\000\000,@\000\000\000\000\000\0000@\000\000\000\000\000\300@@\000\000\000\000\000\000=@\000\000\000\000\000\0008@\000\000\000\000\000\200?@\000\000\000\000\000\2001@\000\000\000\000\000\0004@\000\000\000\000\000\0002@\232\231\231\231\231\2314@3333338@ffffff9@\000\000\000\000\000\000.@\000\000\000\000\000\000.@\000\000\000\000\000\000:@\000\000\000\000\000\0001@\000\000\000\000\000\000.@\000\000\000\000\000\0002@\000\000\000\000\000\000=@\000\000\000\000\000\000*@\000\000\000\000\000\0001@\232\231\231\231\231Y@@\000\000\000\000\000\200@@\000\000\000\000\000\200>@\000\000\000\000\000\000*@\000\000\000\000\000\000,@ffffff@@\000\000\000\000\000\0005@333333A@\000\000\000\000\000\0007@\000\000\000\000\000\000,@\000\000\000\000\000\0009@\000\000\000\000\000\000*@\000\000\000\000\000\0001@\000\000\000\000\000\000<@\315\314\314\314\314LF@\000\000\000\000\000\000.@\000\000\000\000\000\000:@\000\000\000\000\000\000,@ffffff3@\232\231\231\231\231\0319@3333334@\315\314\314\314\314\3143@\000\000\000\000\000\0005@\000\000\000\000\000\000,@\000\000\000\000\000\000*@33333s@@\000\000\000\000\000\0008@\232\231\231\231\231YA@\000\000\000\000\000\0003@\000\000\000\000\000\000,@\000\000\000\000\000\000=@\000\000\000\000\000\000;@3333330@\000\000\000\000\000\000;@fffff&F@\000\000\000\000\000\2001@3333334@\000\000\000\000\000\0000@\000\000\000\000\000\0004@\000\000\000\000\000\2001@\000\000\000\000\000\000B@\000\000\000\000\000\000,@\000\000\000\000\000\000.@33333\263C@fffff\3467@\000\000\000\000\000\0000@\000\000\000\000\000\0001@\315\314\314\314\314L8@\000\000\000\000\000\000*@\000\000\000\000\000\000,@\000\000\000\000\000\0003@333333@@\000\000\000\000\000\000?@\000\000\000\000\000\0009@\000\000\000\000\000\000.@\315\314\314\314\314L?@\315\314\314\314\314\314=@\232\231\231\231\231\2317@\000\000\000\000\000\000.@\000\000\000\000\000\0003@\000\000\000\000\000\0002@ffffff6@\000\000\000\000\000\0007@\315\314\314\314\314\014B@\000\000\000\000\000\000/@\000\000\000\000\000\000,@33333\2631@\000\000\000\000\000\000.@3333333@3333334@\000\000\000\000\000\200>@\000\000\000\000\000\000.@fffff\3467@\000\000\000\000\000\000&@\232\231\231\231\231\231?@\000\000\000\000\000\000;@fffff&@@\000\000\000\000\000\0003@\315\314\314\314\314LG@\000\000\000\000\000\000?@\000\000\000\000\000\0004@\315\314\314\314\314\014@@\000\000\000\000\000\000>@\000\000\000\000\000\000.@\000\000\000\000\000\000<@\000\000\000\000\000\2008@\000\000\000\000\000\000A@\000\000\000\000\000\0002@\000\000\000\000\000\000<@\000\000\000\000\000\000?@\000\000\000\000\000\000?@\000\000\000\000\000\0002@\000\000\000\000\000\000$@\000\000\000\000\000\0006@\315\314\314\314\314\314?@\000\000\000\000\000\0003@\000\000\000\000\000\200C@\000\000\000\000\000\2005@"
      }
    }
  }
}
node {
  name: "TensorSliceDataset"
  op: "TensorSliceDataset"
  input: "normalize_element/component_0"
  input: "normalize_element/component_1"
  input: "normalize_element/component_2"
  input: "normalize_element/component_3"
  input: "normalize_element/component_4"
  input: "normalize_element/component_5"
  input: "normalize_element/component_6"
  input: "normalize_element/component_7"
  device: "/device:CPU:0"
  attr {
    key: "Toutput_types"
    value {
      list {
        type: DT_DOUBLE
        type: DT_DOUBLE
        type: DT_DOUBLE
        type: DT_DOUBLE
        type: DT_INT64
        type: DT_INT64
        type: DT_DOUBLE
        type: DT_DOUBLE
      }
    }
  }
  attr {
    key: "_output_shapes"
    value {
      list {
        shape {
        }
      }
    }
  }
  attr {
    key: "is_files"
    value {
      b: false
    }
  }
  attr {
    key: "metadata"
    value {
      s: ""
    }
  }
  attr {
    key: "output_shapes"
    value {
      list {
        shape {
        }
        shape {
        }
        shape {
        }
        shape {
        }
        shape {
        }
        shape {
        }
        shape {
        }
        shape {
        }
      }
    }
  }
  attr {
    key: "replicate_on_split"
    value {
      b: false
    }
  }
  experimental_type {
    type_id: TFT_PRODUCT
    args {
      type_id: TFT_DATASET
      args {
        type_id: TFT_PRODUCT
        args {
          type_id: TFT_TENSOR
          args {
            type_id: TFT_DOUBLE
          }
        }
        args {
          type_id: TFT_TENSOR
          args {
            type_id: TFT_DOUBLE
          }
        }
        args {
          type_id: TFT_TENSOR
          args {
            type_id: TFT_DOUBLE
          }
        }
        args {
          type_id: TFT_TENSOR
          args {
            type_id: TFT_DOUBLE
          }
        }
        args {
          type_id: TFT_TENSOR
          args {
            type_id: TFT_INT64
          }
        }
        args {
          type_id: TFT_TENSOR
          args {
            type_id: TFT_INT64
          }
        }
        args {
          type_id: TFT_TENSOR
          args {
            type_id: TFT_DOUBLE
          }
        }
        args {
          type_id: TFT_TENSOR
          args {
            type_id: TFT_DOUBLE
          }
        }
      }
    }
  }
}
node {
  name: "buffer_size"
  op: "Const"
  device: "/device:CPU:0"
  attr {
    key: "_output_shapes"
    value {
      list {
        shape {
        }
      }
    }
  }
  attr {
    key: "dtype"
    value {
      type: DT_INT64
    }
  }
  attr {
    key: "value"
    value {
      tensor {
        dtype: DT_INT64
        tensor_shape {
        }
        int64_val: 1000
      }
    }
  }
}
node {
  name: "seed"
  op: "Const"
  device: "/device:CPU:0"
  attr {
    key: "_output_shapes"
    value {
      list {
        shape {
        }
      }
    }
  }
  attr {
    key: "dtype"
    value {
      type: DT_INT64
    }
  }
  attr {
    key: "value"
    value {
      tensor {
        dtype: DT_INT64
        tensor_shape {
        }
        int64_val: 0
      }
    }
  }
}
node {
  name: "seed2"
  op: "Const"
  device: "/device:CPU:0"
  attr {
    key: "_output_shapes"
    value {
      list {
        shape {
        }
      }
    }
  }
  attr {
    key: "dtype"
    value {
      type: DT_INT64
    }
  }
  attr {
    key: "value"
    value {
      tensor {
        dtype: DT_INT64
        tensor_shape {
        }
        int64_val: 0
      }
    }
  }
}
node {
  name: "ShuffleDataset"
  op: "ShuffleDataset"
  input: "TensorSliceDataset"
  input: "buffer_size"
  input: "seed"
  input: "seed2"
  device: "/device:CPU:0"
  attr {
    key: "_output_shapes"
    value {
      list {
        shape {
        }
      }
    }
  }
  attr {
    key: "metadata"
    value {
      s: ""
    }
  }
  attr {
    key: "output_shapes"
    value {
      list {
        shape {
        }
        shape {
        }
        shape {
        }
        shape {
        }
        shape {
        }
        shape {
        }
        shape {
        }
        shape {
        }
      }
    }
  }
  attr {
    key: "output_types"
    value {
      list {
        type: DT_DOUBLE
        type: DT_DOUBLE
        type: DT_DOUBLE
        type: DT_DOUBLE
        type: DT_INT64
        type: DT_INT64
        type: DT_DOUBLE
        type: DT_DOUBLE
      }
    }
  }
  attr {
    key: "reshuffle_each_iteration"
    value {
      b: true
    }
  }
  experimental_type {
    type_id: TFT_PRODUCT
    args {
      type_id: TFT_DATASET
      args {
        type_id: TFT_PRODUCT
        args {
          type_id: TFT_TENSOR
          args {
            type_id: TFT_DOUBLE
          }
        }
        args {
          type_id: TFT_TENSOR
          args {
            type_id: TFT_DOUBLE
          }
        }
        args {
          type_id: TFT_TENSOR
          args {
            type_id: TFT_DOUBLE
          }
        }
        args {
          type_id: TFT_TENSOR
          args {
            type_id: TFT_DOUBLE
          }
        }
        args {
          type_id: TFT_TENSOR
          args {
            type_id: TFT_INT64
          }
        }
        args {
          type_id: TFT_TENSOR
          args {
            type_id: TFT_INT64
          }
        }
        args {
          type_id: TFT_TENSOR
          args {
            type_id: TFT_DOUBLE
          }
        }
        args {
          type_id: TFT_TENSOR
          args {
            type_id: TFT_DOUBLE
          }
        }
      }
    }
  }
}
node {
  name: "count"
  op: "Const"
  device: "/device:CPU:0"
  attr {
    key: "_output_shapes"
    value {
      list {
        shape {
        }
      }
    }
  }
  attr {
    key: "dtype"
    value {
      type: DT_INT64
    }
  }
  attr {
    key: "value"
    value {
      tensor {
        dtype: DT_INT64
        tensor_shape {
        }
        int64_val: -1
      }
    }
  }
}
node {
  name: "RepeatDataset"
  op: "RepeatDataset"
  input: "ShuffleDataset"
  input: "count"
  device: "/device:CPU:0"
  attr {
    key: "_output_shapes"
    value {
      list {
        shape {
        }
      }
    }
  }
  attr {
    key: "metadata"
    value {
      s: ""
    }
  }
  attr {
    key: "output_shapes"
    value {
      list {
        shape {
        }
        shape {
        }
        shape {
        }
        shape {
        }
        shape {
        }
        shape {
        }
        shape {
        }
        shape {
        }
      }
    }
  }
  attr {
    key: "output_types"
    value {
      list {
        type: DT_DOUBLE
        type: DT_DOUBLE
        type: DT_DOUBLE
        type: DT_DOUBLE
        type: DT_INT64
        type: DT_INT64
        type: DT_DOUBLE
        type: DT_DOUBLE
      }
    }
  }
  experimental_type {
    type_id: TFT_PRODUCT
    args {
      type_id: TFT_DATASET
      args {
        type_id: TFT_PRODUCT
        args {
          type_id: TFT_TENSOR
          args {
            type_id: TFT_DOUBLE
          }
        }
        args {
          type_id: TFT_TENSOR
          args {
            type_id: TFT_DOUBLE
          }
        }
        args {
          type_id: TFT_TENSOR
          args {
            type_id: TFT_DOUBLE
          }
        }
        args {
          type_id: TFT_TENSOR
          args {
            type_id: TFT_DOUBLE
          }
        }
        args {
          type_id: TFT_TENSOR
          args {
            type_id: TFT_INT64
          }
        }
        args {
          type_id: TFT_TENSOR
          args {
            type_id: TFT_INT64
          }
        }
        args {
          type_id: TFT_TENSOR
          args {
            type_id: TFT_DOUBLE
          }
        }
        args {
          type_id: TFT_TENSOR
          args {
            type_id: TFT_DOUBLE
          }
        }
      }
    }
  }
}
node {
  name: "batch_size"
  op: "Const"
  device: "/device:CPU:0"
  attr {
    key: "_output_shapes"
    value {
      list {
        shape {
        }
      }
    }
  }
  attr {
    key: "dtype"
    value {
      type: DT_INT64
    }
  }
  attr {
    key: "value"
    value {
      tensor {
        dtype: DT_INT64
        tensor_shape {
        }
        int64_val: 8
      }
    }
  }
}
node {
  name: "drop_remainder"
  op: "Const"
  device: "/device:CPU:0"
  attr {
    key: "_output_shapes"
    value {
      list {
        shape {
        }
      }
    }
  }
  attr {
    key: "dtype"
    value {
      type: DT_BOOL
    }
  }
  attr {
    key: "value"
    value {
      tensor {
        dtype: DT_BOOL
        tensor_shape {
        }
        bool_val: false
      }
    }
  }
}
node {
  name: "BatchDatasetV2"
  op: "BatchDatasetV2"
  input: "RepeatDataset"
  input: "batch_size"
  input: "drop_remainder"
  device: "/device:CPU:0"
  attr {
    key: "_output_shapes"
    value {
      list {
        shape {
        }
      }
    }
  }
  attr {
    key: "metadata"
    value {
      s: ""
    }
  }
  attr {
    key: "output_shapes"
    value {
      list {
        shape {
          dim {
            size: -1
          }
        }
        shape {
          dim {
            size: -1
          }
        }
        shape {
          dim {
            size: -1
          }
        }
        shape {
          dim {
            size: -1
          }
        }
        shape {
          dim {
            size: -1
          }
        }
        shape {
          dim {
            size: -1
          }
        }
        shape {
          dim {
            size: -1
          }
        }
        shape {
          dim {
            size: -1
          }
        }
      }
    }
  }
  attr {
    key: "output_types"
    value {
      list {
        type: DT_DOUBLE
        type: DT_DOUBLE
        type: DT_DOUBLE
        type: DT_DOUBLE
        type: DT_INT64
        type: DT_INT64
        type: DT_DOUBLE
        type: DT_DOUBLE
      }
    }
  }
  attr {
    key: "parallel_copy"
    value {
      b: false
    }
  }
  experimental_type {
    type_id: TFT_PRODUCT
    args {
      type_id: TFT_DATASET
      args {
        type_id: TFT_PRODUCT
        args {
          type_id: TFT_TENSOR
          args {
            type_id: TFT_DOUBLE
          }
        }
        args {
          type_id: TFT_TENSOR
          args {
            type_id: TFT_DOUBLE
          }
        }
        args {
          type_id: TFT_TENSOR
          args {
            type_id: TFT_DOUBLE
          }
        }
        args {
          type_id: TFT_TENSOR
          args {
            type_id: TFT_DOUBLE
          }
        }
        args {
          type_id: TFT_TENSOR
          args {
            type_id: TFT_INT64
          }
        }
        args {
          type_id: TFT_TENSOR
          args {
            type_id: TFT_INT64
          }
        }
        args {
          type_id: TFT_TENSOR
          args {
            type_id: TFT_DOUBLE
          }
        }
        args {
          type_id: TFT_TENSOR
          args {
            type_id: TFT_DOUBLE
          }
        }
      }
    }
  }
}
node {
  name: "IteratorV2"
  op: "IteratorV2"
  device: "/device:CPU:0"
  attr {
    key: "_class"
    value {
      list {
        s: "loc:@BatchDatasetV2"
      }
    }
  }
  attr {
    key: "_output_shapes"
    value {
      list {
        shape {
        }
      }
    }
  }
  attr {
    key: "container"
    value {
      s: ""
    }
  }
  attr {
    key: "output_shapes"
    value {
      list {
        shape {
          dim {
            size: -1
          }
        }
        shape {
          dim {
            size: -1
          }
        }
        shape {
          dim {
            size: -1
          }
        }
        shape {
          dim {
            size: -1
          }
        }
        shape {
          dim {
            size: -1
          }
        }
        shape {
          dim {
            size: -1
          }
        }
        shape {
          dim {
            size: -1
          }
        }
        shape {
          dim {
            size: -1
          }
        }
      }
    }
  }
  attr {
    key: "output_types"
    value {
      list {
        type: DT_DOUBLE
        type: DT_DOUBLE
        type: DT_DOUBLE
        type: DT_DOUBLE
        type: DT_INT64
        type: DT_INT64
        type: DT_DOUBLE
        type: DT_DOUBLE
      }
    }
  }
  attr {
    key: "shared_name"
    value {
      s: ""
    }
  }
}
node {
  name: "MakeIterator"
  op: "MakeIterator"
  input: "BatchDatasetV2"
  input: "IteratorV2"
  device: "/device:CPU:0"
  attr {
    key: "_class"
    value {
      list {
        s: "loc:@BatchDatasetV2"
      }
    }
  }
  experimental_type {
    type_id: TFT_PRODUCT
  }
}
node {
  name: "IteratorToStringHandle"
  op: "IteratorToStringHandle"
  input: "IteratorV2"
  device: "/device:CPU:0"
  attr {
    key: "_class"
    value {
      list {
        s: "loc:@BatchDatasetV2"
      }
    }
  }
  attr {
    key: "_output_shapes"
    value {
      list {
        shape {
        }
      }
    }
  }
}
node {
  name: "IteratorGetNext"
  op: "IteratorGetNext"
  input: "IteratorV2"
  device: "/device:CPU:0"
  attr {
    key: "_class"
    value {
      list {
        s: "loc:@BatchDatasetV2"
      }
    }
  }
  attr {
    key: "_output_shapes"
    value {
      list {
        shape {
          dim {
            size: -1
          }
        }
        shape {
          dim {
            size: -1
          }
        }
        shape {
          dim {
            size: -1
          }
        }
        shape {
          dim {
            size: -1
          }
        }
        shape {
          dim {
            size: -1
          }
        }
        shape {
          dim {
            size: -1
          }
        }
        shape {
          dim {
            size: -1
          }
        }
        shape {
          dim {
            size: -1
          }
        }
      }
    }
  }
  attr {
    key: "output_shapes"
    value {
      list {
        shape {
          dim {
            size: -1
          }
        }
        shape {
          dim {
            size: -1
          }
        }
        shape {
          dim {
            size: -1
          }
        }
        shape {
          dim {
            size: -1
          }
        }
        shape {
          dim {
            size: -1
          }
        }
        shape {
          dim {
            size: -1
          }
        }
        shape {
          dim {
            size: -1
          }
        }
        shape {
          dim {
            size: -1
          }
        }
      }
    }
  }
  attr {
    key: "output_types"
    value {
      list {
        type: DT_DOUBLE
        type: DT_DOUBLE
        type: DT_DOUBLE
        type: DT_DOUBLE
        type: DT_INT64
        type: DT_INT64
        type: DT_DOUBLE
        type: DT_DOUBLE
      }
    }
  }
}
node {
  name: "dnn/Cast"
  op: "Cast"
  input: "IteratorGetNext"
  attr {
    key: "DstT"
    value {
      type: DT_FLOAT
    }
  }
  attr {
    key: "SrcT"
    value {
      type: DT_DOUBLE
    }
  }
  attr {
    key: "Truncate"
    value {
      b: false
    }
  }
  attr {
    key: "_output_shapes"
    value {
      list {
        shape {
          dim {
            size: -1
          }
        }
      }
    }
  }
}
node {
  name: "dnn/Cast_1"
  op: "Cast"
  input: "IteratorGetNext:1"
  attr {
    key: "DstT"
    value {
      type: DT_FLOAT
    }
  }
  attr {
    key: "SrcT"
    value {
      type: DT_DOUBLE
    }
  }
  attr {
    key: "Truncate"
    value {
      b: false
    }
  }
  attr {
    key: "_output_shapes"
    value {
      list {
        shape {
          dim {
            size: -1
          }
        }
      }
    }
  }
}
node {
  name: "dnn/Cast_2"
  op: "Cast"
  input: "IteratorGetNext:2"
  attr {
    key: "DstT"
    value {
      type: DT_FLOAT
    }
  }
  attr {
    key: "SrcT"
    value {
      type: DT_DOUBLE
    }
  }
  attr {
    key: "Truncate"
    value {
      b: false
    }
  }
  attr {
    key: "_output_shapes"
    value {
      list {
        shape {
          dim {
            size: -1
          }
        }
      }
    }
  }
}
node {
  name: "dnn/Cast_3"
  op: "Cast"
  input: "IteratorGetNext:3"
  attr {
    key: "DstT"
    value {
      type: DT_FLOAT
    }
  }
  attr {
    key: "SrcT"
    value {
      type: DT_DOUBLE
    }
  }
  attr {
    key: "Truncate"
    value {
      b: false
    }
  }
  attr {
    key: "_output_shapes"
    value {
      list {
        shape {
          dim {
            size: -1
          }
        }
      }
    }
  }
}
node {
  name: "dnn/Cast_4"
  op: "Cast"
  input: "IteratorGetNext:6"
  attr {
    key: "DstT"
    value {
      type: DT_FLOAT
    }
  }
  attr {
    key: "SrcT"
    value {
      type: DT_DOUBLE
    }
  }
  attr {
    key: "Truncate"
    value {
      b: false
    }
  }
  attr {
    key: "_output_shapes"
    value {
      list {
        shape {
          dim {
            size: -1
          }
        }
      }
    }
  }
}
node {
  name: "dnn/input_from_feature_columns/input_layer/Acceleration_1/ExpandDims/dim"
  op: "Const"
  attr {
    key: "_output_shapes"
    value {
      list {
        shape {
        }
      }
    }
  }
  attr {
    key: "dtype"
    value {
      type: DT_INT32
    }
  }
  attr {
    key: "value"
    value {
      tensor {
        dtype: DT_INT32
        tensor_shape {
        }
        int_val: -1
      }
    }
  }
}
node {
  name: "dnn/input_from_feature_columns/input_layer/Acceleration_1/ExpandDims"
  op: "ExpandDims"
  input: "dnn/Cast"
  input: "dnn/input_from_feature_columns/input_layer/Acceleration_1/ExpandDims/dim"
  attr {
    key: "T"
    value {
      type: DT_FLOAT
    }
  }
  attr {
    key: "Tdim"
    value {
      type: DT_INT32
    }
  }
  attr {
    key: "_output_shapes"
    value {
      list {
        shape {
          dim {
            size: -1
          }
          dim {
            size: 1
          }
        }
      }
    }
  }
}
node {
  name: "dnn/input_from_feature_columns/input_layer/Acceleration_1/Shape"
  op: "Shape"
  input: "dnn/input_from_feature_columns/input_layer/Acceleration_1/ExpandDims"
  attr {
    key: "T"
    value {
      type: DT_FLOAT
    }
  }
  attr {
    key: "_output_shapes"
    value {
      list {
        shape {
          dim {
            size: 2
          }
        }
      }
    }
  }
  attr {
    key: "out_type"
    value {
      type: DT_INT32
    }
  }
}
node {
  name: "dnn/input_from_feature_columns/input_layer/Acceleration_1/strided_slice/stack"
  op: "Const"
  attr {
    key: "_output_shapes"
    value {
      list {
        shape {
          dim {
            size: 1
          }
        }
      }
    }
  }
  attr {
    key: "dtype"
    value {
      type: DT_INT32
    }
  }
  attr {
    key: "value"
    value {
      tensor {
        dtype: DT_INT32
        tensor_shape {
          dim {
            size: 1
          }
        }
        int_val: 0
      }
    }
  }
}
node {
  name: "dnn/input_from_feature_columns/input_layer/Acceleration_1/strided_slice/stack_1"
  op: "Const"
  attr {
    key: "_output_shapes"
    value {
      list {
        shape {
          dim {
            size: 1
          }
        }
      }
    }
  }
  attr {
    key: "dtype"
    value {
      type: DT_INT32
    }
  }
  attr {
    key: "value"
    value {
      tensor {
        dtype: DT_INT32
        tensor_shape {
          dim {
            size: 1
          }
        }
        int_val: 1
      }
    }
  }
}
node {
  name: "dnn/input_from_feature_columns/input_layer/Acceleration_1/strided_slice/stack_2"
  op: "Const"
  attr {
    key: "_output_shapes"
    value {
      list {
        shape {
          dim {
            size: 1
          }
        }
      }
    }
  }
  attr {
    key: "dtype"
    value {
      type: DT_INT32
    }
  }
  attr {
    key: "value"
    value {
      tensor {
        dtype: DT_INT32
        tensor_shape {
          dim {
            size: 1
          }
        }
        int_val: 1
      }
    }
  }
}
node {
  name: "dnn/input_from_feature_columns/input_layer/Acceleration_1/strided_slice"
  op: "StridedSlice"
  input: "dnn/input_from_feature_columns/input_layer/Acceleration_1/Shape"
  input: "dnn/input_from_feature_columns/input_layer/Acceleration_1/strided_slice/stack"
  input: "dnn/input_from_feature_columns/input_layer/Acceleration_1/strided_slice/stack_1"
  input: "dnn/input_from_feature_columns/input_layer/Acceleration_1/strided_slice/stack_2"
  attr {
    key: "Index"
    value {
      type: DT_INT32
    }
  }
  attr {
    key: "T"
    value {
      type: DT_INT32
    }
  }
  attr {
    key: "_output_shapes"
    value {
      list {
        shape {
        }
      }
    }
  }
  attr {
    key: "begin_mask"
    value {
      i: 0
    }
  }
  attr {
    key: "ellipsis_mask"
    value {
      i: 0
    }
  }
  attr {
    key: "end_mask"
    value {
      i: 0
    }
  }
  attr {
    key: "new_axis_mask"
    value {
      i: 0
    }
  }
  attr {
    key: "shrink_axis_mask"
    value {
      i: 1
    }
  }
}
node {
  name: "dnn/input_from_feature_columns/input_layer/Acceleration_1/Reshape/shape/1"
  op: "Const"
  attr {
    key: "_output_shapes"
    value {
      list {
        shape {
        }
      }
    }
  }
  attr {
    key: "dtype"
    value {
      type: DT_INT32
    }
  }
  attr {
    key: "value"
    value {
      tensor {
        dtype: DT_INT32
        tensor_shape {
        }
        int_val: 1
      }
    }
  }
}
node {
  name: "dnn/input_from_feature_columns/input_layer/Acceleration_1/Reshape/shape"
  op: "Pack"
  input: "dnn/input_from_feature_columns/input_layer/Acceleration_1/strided_slice"
  input: "dnn/input_from_feature_columns/input_layer/Acceleration_1/Reshape/shape/1"
  attr {
    key: "N"
    value {
      i: 2
    }
  }
  attr {
    key: "T"
    value {
      type: DT_INT32
    }
  }
  attr {
    key: "_output_shapes"
    value {
      list {
        shape {
          dim {
            size: 2
          }
        }
      }
    }
  }
  attr {
    key: "axis"
    value {
      i: 0
    }
  }
}
node {
  name: "dnn/input_from_feature_columns/input_layer/Acceleration_1/Reshape"
  op: "Reshape"
  input: "dnn/input_from_feature_columns/input_layer/Acceleration_1/ExpandDims"
  input: "dnn/input_from_feature_columns/input_layer/Acceleration_1/Reshape/shape"
  attr {
    key: "T"
    value {
      type: DT_FLOAT
    }
  }
  attr {
    key: "Tshape"
    value {
      type: DT_INT32
    }
  }
  attr {
    key: "_output_shapes"
    value {
      list {
        shape {
          dim {
            size: -1
          }
          dim {
            size: 1
          }
        }
      }
    }
  }
}
node {
  name: "dnn/input_from_feature_columns/input_layer/Cylinders_1/ExpandDims/dim"
  op: "Const"
  attr {
    key: "_output_shapes"
    value {
      list {
        shape {
        }
      }
    }
  }
  attr {
    key: "dtype"
    value {
      type: DT_INT32
    }
  }
  attr {
    key: "value"
    value {
      tensor {
        dtype: DT_INT32
        tensor_shape {
        }
        int_val: -1
      }
    }
  }
}
node {
  name: "dnn/input_from_feature_columns/input_layer/Cylinders_1/ExpandDims"
  op: "ExpandDims"
  input: "dnn/Cast_1"
  input: "dnn/input_from_feature_columns/input_layer/Cylinders_1/ExpandDims/dim"
  attr {
    key: "T"
    value {
      type: DT_FLOAT
    }
  }
  attr {
    key: "Tdim"
    value {
      type: DT_INT32
    }
  }
  attr {
    key: "_output_shapes"
    value {
      list {
        shape {
          dim {
            size: -1
          }
          dim {
            size: 1
          }
        }
      }
    }
  }
}
node {
  name: "dnn/input_from_feature_columns/input_layer/Cylinders_1/Shape"
  op: "Shape"
  input: "dnn/input_from_feature_columns/input_layer/Cylinders_1/ExpandDims"
  attr {
    key: "T"
    value {
      type: DT_FLOAT
    }
  }
  attr {
    key: "_output_shapes"
    value {
      list {
        shape {
          dim {
            size: 2
          }
        }
      }
    }
  }
  attr {
    key: "out_type"
    value {
      type: DT_INT32
    }
  }
}
node {
  name: "dnn/input_from_feature_columns/input_layer/Cylinders_1/strided_slice/stack"
  op: "Const"
  attr {
    key: "_output_shapes"
    value {
      list {
        shape {
          dim {
            size: 1
          }
        }
      }
    }
  }
  attr {
    key: "dtype"
    value {
      type: DT_INT32
    }
  }
  attr {
    key: "value"
    value {
      tensor {
        dtype: DT_INT32
        tensor_shape {
          dim {
            size: 1
          }
        }
        int_val: 0
      }
    }
  }
}
node {
  name: "dnn/input_from_feature_columns/input_layer/Cylinders_1/strided_slice/stack_1"
  op: "Const"
  attr {
    key: "_output_shapes"
    value {
      list {
        shape {
          dim {
            size: 1
          }
        }
      }
    }
  }
  attr {
    key: "dtype"
    value {
      type: DT_INT32
    }
  }
  attr {
    key: "value"
    value {
      tensor {
        dtype: DT_INT32
        tensor_shape {
          dim {
            size: 1
          }
        }
        int_val: 1
      }
    }
  }
}
node {
  name: "dnn/input_from_feature_columns/input_layer/Cylinders_1/strided_slice/stack_2"
  op: "Const"
  attr {
    key: "_output_shapes"
    value {
      list {
        shape {
          dim {
            size: 1
          }
        }
      }
    }
  }
  attr {
    key: "dtype"
    value {
      type: DT_INT32
    }
  }
  attr {
    key: "value"
    value {
      tensor {
        dtype: DT_INT32
        tensor_shape {
          dim {
            size: 1
          }
        }
        int_val: 1
      }
    }
  }
}
node {
  name: "dnn/input_from_feature_columns/input_layer/Cylinders_1/strided_slice"
  op: "StridedSlice"
  input: "dnn/input_from_feature_columns/input_layer/Cylinders_1/Shape"
  input: "dnn/input_from_feature_columns/input_layer/Cylinders_1/strided_slice/stack"
